node {
  name: "global_step/Initializer/zeros"
  op: "Const"
  attr {
    key: "_class"
    value {
      list {
        s: "loc:@global_step"
      }
    }
  }
  attr {
    key: "_output_shapes"
    value {
      list {
        shape {
        }
      }
    }
  }
  attr {
    key: "dtype"
    value {
      type: DT_INT64
    }
  }
  attr {
    key: "value"
    value {
      tensor {
        dtype: DT_INT64
        tensor_shape {
        }
        int64_val: 0
      }
    }
  }
}
node {
  name: "global_step"
  op: "VariableV2"
  attr {
    key: "_class"
    value {
      list {
        s: "loc:@global_step"
      }
    }
  }
  attr {
    key: "_output_shapes"
    value {
      list {
        shape {
        }
      }
    }
  }
  attr {
    key: "container"
    value {
      s: ""
    }
  }
  attr {
    key: "dtype"
    value {
      type: DT_INT64
    }
  }
  attr {
    key: "shape"
    value {
      shape {
      }
    }
  }
  attr {
    key: "shared_name"
    value {
      s: ""
    }
  }
}
node {
  name: "global_step/Assign"
  op: "Assign"
  input: "global_step"
  input: "global_step/Initializer/zeros"
  attr {
    key: "T"
    value {
      type: DT_INT64
    }
  }
  attr {
    key: "_class"
    value {
      list {
        s: "loc:@global_step"
      }
    }
  }
  attr {
    key: "_output_shapes"
    value {
      list {
        shape {
        }
      }
    }
  }
  attr {
    key: "use_locking"
    value {
      b: true
    }
  }
  attr {
    key: "validate_shape"
    value {
      b: true
    }
  }
}
node {
  name: "global_step/read"
  op: "Identity"
  input: "global_step"
  attr {
    key: "T"
    value {
      type: DT_INT64
    }
  }
  attr {
    key: "_class"
    value {
      list {
        s: "loc:@global_step"
      }
    }
  }
  attr {
    key: "_output_shapes"
    value {
      list {
        shape {
        }
      }
    }
  }
}
node {
  name: "global_step/IsVariableInitialized"
  op: "IsVariableInitialized"
  input: "global_step"
  attr {
    key: "_class"
    value {
      list {
        s: "loc:@global_step"
      }
    }
  }
  attr {
    key: "_output_shapes"
    value {
      list {
        shape {
        }
      }
    }
  }
  attr {
    key: "dtype"
    value {
      type: DT_INT64
    }
  }
}
node {
  name: "global_step/cond/Switch"
  op: "Switch"
  input: "global_step/IsVariableInitialized"
  input: "global_step/IsVariableInitialized"
  attr {
    key: "T"
    value {
      type: DT_BOOL
    }
  }
  attr {
    key: "_output_shapes"
    value {
      list {
        shape {
        }
        shape {
        }
      }
    }
  }
}
node {
  name: "global_step/cond/switch_t"
  op: "Identity"
  input: "global_step/cond/Switch:1"
  attr {
    key: "T"
    value {
      type: DT_BOOL
    }
  }
  attr {
    key: "_output_shapes"
    value {
      list {
        shape {
        }
      }
    }
  }
}
node {
  name: "global_step/cond/switch_f"
  op: "Identity"
  input: "global_step/cond/Switch"
  attr {
    key: "T"
    value {
      type: DT_BOOL
    }
  }
  attr {
    key: "_output_shapes"
    value {
      list {
        shape {
        }
      }
    }
  }
}
node {
  name: "global_step/cond/pred_id"
  op: "Identity"
  input: "global_step/IsVariableInitialized"
  attr {
    key: "T"
    value {
      type: DT_BOOL
    }
  }
  attr {
    key: "_output_shapes"
    value {
      list {
        shape {
        }
      }
    }
  }
}
node {
  name: "global_step/cond/read"
  op: "Identity"
  input: "global_step/cond/read/Switch:1"
  attr {
    key: "T"
    value {
      type: DT_INT64
    }
  }
  attr {
    key: "_output_shapes"
    value {
      list {
        shape {
        }
      }
    }
  }
}
node {
  name: "global_step/cond/read/Switch"
  op: "RefSwitch"
  input: "global_step"
  input: "global_step/cond/pred_id"
  attr {
    key: "T"
    value {
      type: DT_INT64
    }
  }
  attr {
    key: "_class"
    value {
      list {
        s: "loc:@global_step"
      }
    }
  }
  attr {
    key: "_output_shapes"
    value {
      list {
        shape {
        }
        shape {
        }
      }
    }
  }
}
node {
  name: "global_step/cond/Switch_1"
  op: "Switch"
  input: "global_step/Initializer/zeros"
  input: "global_step/cond/pred_id"
  attr {
    key: "T"
    value {
      type: DT_INT64
    }
  }
  attr {
    key: "_class"
    value {
      list {
        s: "loc:@global_step"
      }
    }
  }
  attr {
    key: "_output_shapes"
    value {
      list {
        shape {
        }
        shape {
        }
      }
    }
  }
}
node {
  name: "global_step/cond/Merge"
  op: "Merge"
  input: "global_step/cond/Switch_1"
  input: "global_step/cond/read"
  attr {
    key: "N"
    value {
      i: 2
    }
  }
  attr {
    key: "T"
    value {
      type: DT_INT64
    }
  }
  attr {
    key: "_output_shapes"
    value {
      list {
        shape {
        }
        shape {
        }
      }
    }
  }
}
node {
  name: "global_step/add/y"
  op: "Const"
  attr {
    key: "_output_shapes"
    value {
      list {
        shape {
        }
      }
    }
  }
  attr {
    key: "dtype"
    value {
      type: DT_INT64
    }
  }
  attr {
    key: "value"
    value {
      tensor {
        dtype: DT_INT64
        tensor_shape {
        }
        int64_val: 0
      }
    }
  }
}
node {
  name: "global_step/add"
  op: "Add"
  input: "global_step/cond/Merge"
  input: "global_step/add/y"
  attr {
    key: "T"
    value {
      type: DT_INT64
    }
  }
  attr {
    key: "_output_shapes"
    value {
      list {
        shape {
        }
      }
    }
  }
}
node {
  name: "tensors/component_0"
  op: "Const"
  device: "/device:CPU:0"
  attr {
    key: "_output_shapes"
    value {
      list {
        shape {
          dim {
            size: 8000
          }
        }
      }
    }
  }
  attr {
    key: "dtype"
    value {
      type: DT_INT64
    }
  }
  attr {
    key: "value"
    value {
      tensor {
        dtype: DT_INT64
        tensor_shape {
          dim {
            size: 8000
          }
        }
        tensor_content: "\\\000\000\000\000\000\000\000j\000\000\000\000\000\000\000/\000\000\000\000\000\000\000a\000\000\000\000\000\000\000\200\000\000\000\000\000\000\000l\000\000\000\000\000\000\000\212\000\000\000\000\000\000\000I\000\000\000\000\000\000\000R\000\000\000\000\000\000\000\224\000\000\000\000\000\000\000F\000\000\000\000\000\000\000\247\000\000\000\000\000\000\000R\000\000\000\000\000\000\000\200\000\000\000\000\000\000\000k\000\000\000\000\000\000\000R\000\000\000\000\000\000\000i\000\000\000\000\000\000\000\206\000\000\000\000\000\000\000\221\000\000\000\000\000\000\0006\000\000\000\000\000\000\000L\000\000\000\000\000\000\000q\000\000\000\000\000\000\0008\000\000\000\000\000\000\000P\000\000\000\000\000\000\000k\000\000\000\000\000\000\000Z\000\000\000\000\000\000\000I\000\000\000\000\000\000\000E\000\000\000\000\000\000\000Y\000\000\000\000\000\000\000{\000\000\000\000\000\000\000f\000\000\000\000\000\000\000\205\000\000\000\000\000\000\000\217\000\000\000\000\000\000\000D\000\000\000\000\000\000\000D\000\000\000\000\000\000\0003\000\000\000\000\000\000\000i\000\000\000\000\000\000\000y\000\000\000\000\000\000\000\177\000\000\000\000\000\000\000W\000\000\000\000\000\000\000d\000\000\000\000\000\000\000}\000\000\000\000\000\000\000=\000\000\000\000\000\000\000&\000\000\000\000\000\000\000\225\000\000\000\000\000\000\000\243\000\000\000\000\000\000\000c\000\000\000\000\000\000\000r\000\000\000\000\000\000\000q\000\000\000\000\000\000\000]\000\000\000\000\000\000\000F\000\000\000\000\000\000\000t\000\000\000\000\000\000\000G\000\000\000\000\000\000\000K\000\000\000\000\000\000\000a\000\000\000\000\000\000\000_\000\000\000\000\000\000\000V\000\000\000\000\000\000\000`\000\000\000\000\000\000\000K\000\000\000\000\000\000\000g\000\000\000\000\000\000\000\232\000\000\000\000\000\000\000C\000\000\000\000\000\000\000i\000\000\000\000\000\000\000\207\000\000\000\000\000\000\000A\000\000\000\000\000\000\000\210\000\000\000\000\000\000\000Y\000\000\000\000\000\000\000}\000\000\000\000\000\000\000D\000\000\000\000\000\000\000^\000\000\000\000\000\000\000L\000\000\000\000\000\000\000T\000\000\000\000\000\000\000c\000\000\000\000\000\000\000|\000\000\000\000\000\000\000y\000\000\000\000\000\000\000\233\000\000\000\000\000\000\000E\000\000\000\000\000\000\000|\000\000\000\000\000\000\000\223\000\000\000\000\000\000\000c\000\000\000\000\000\000\000B\000\000\000\000\000\000\000[\000\000\000\000\000\000\000f\000\000\000\000\000\000\000k\000\000\000\000\000\000\000c\000\000\000\000\000\000\000G\000\000\000\000\000\000\000\230\000\000\000\000\000\000\000d\000\000\000\000\000\000\000Y\000\000\000\000\000\000\000T\000\000\000\000\000\000\000I\000\000\000\000\000\000\000J\000\000\000\000\000\000\000q\000\000\000\000\000\000\000=\000\000\000\000\000\000\000~\000\000\000\000\000\000\000@\000\000\000\000\000\000\000{\000\000\000\000\000\000\000L\000\000\000\000\000\000\000:\000\000\000\000\000\000\000i\000\000\000\000\000\000\000g\000\000\000\000\000\000\000U\000\000\000\000\000\000\000L\000\000\000\000\000\000\000f\000\000\000\000\000\000\000\206\000\000\000\000\000\000\0006\000\000\000\000\000\000\000Z\000\000\000\000\000\000\000n\000\000\000\000\000\000\000A\000\000\000\000\000\000\000\276\000\000\000\000\000\000\000l\000\000\000\000\000\000\000X\000\000\000\000\000\000\000k\000\000\000\000\000\000\000E\000\000\000\000\000\000\000\322\000\000\000\000\000\000\000\206\000\000\000\000\000\000\000\235\000\000\000\000\000\000\000\211\000\000\000\000\000\000\000W\000\000\000\000\000\000\000T\000\000\000\000\000\000\000l\000\000\000\000\000\000\000i\000\000\000\000\000\000\000J\000\000\000\000\000\000\0003\000\000\000\000\000\000\000f\000\000\000\000\000\000\000M\000\000\000\000\000\000\000P\000\000\000\000\000\000\000w\000\000\000\000\000\000\000X\000\000\000\000\000\000\000H\000\000\000\000\000\000\000^\000\000\000\000\000\000\000\233\000\000\000\000\000\000\000c\000\000\000\000\000\000\000\226\000\000\000\000\000\000\000C\000\000\000\000\000\000\000c\000\000\000\000\000\000\000b\000\000\000\000\000\000\000b\000\000\000\000\000\000\000\272\000\000\000\000\000\000\000^\000\000\000\000\000\000\000u\000\000\000\000\000\000\000\300\000\000\000\000\000\000\000g\000\000\000\000\000\000\000r\000\000\000\000\000\000\000E\000\000\000\000\000\000\000m\000\000\000\000\000\000\000u\000\000\000\000\000\000\000?\000\000\000\000\000\000\000\200\000\000\000\000\000\000\000b\000\000\000\000\000\000\000x\000\000\000\000\000\000\000A\000\000\000\000\000\000\000\207\000\000\000\000\000\000\000j\000\000\000\000\000\000\000p\000\000\000\000\000\000\000p\000\000\000\000\000\000\000\225\000\000\000\000\000\000\000\221\000\000\000\000\000\000\000S\000\000\000\000\000\000\000\233\000\000\000\000\000\000\000u\000\000\000\000\000\000\000f\000\000\000\000\000\000\000{\000\000\000\000\000\000\000s\000\000\000\000\000\000\000h\000\000\000\000\000\000\000h\000\000\000\000\000\000\000Z\000\000\000\000\000\000\0008\000\000\000\000\000\000\000_\000\000\000\000\000\000\000]\000\000\000\000\000\000\000a\000\000\000\000\000\000\000n\000\000\000\000\000\000\000=\000\000\000\000\000\000\000e\000\000\000\000\000\000\000|\000\000\000\000\000\000\000~\000\000\000\000\000\000\000h\000\000\000\000\000\000\000\215\000\000\000\000\000\000\000F\000\000\000\000\000\000\000t\000\000\000\000\000\000\000N\000\000\000\000\000\000\000Y\000\000\000\000\000\000\000Z\000\000\000\000\000\000\000k\000\000\000\000\000\000\000\224\000\000\000\000\000\000\000>\000\000\000\000\000\000\0006\000\000\000\000\000\000\000\275\000\000\000\000\000\000\000\200\000\000\000\000\000\000\000Y\000\000\000\000\000\000\000r\000\000\000\000\000\000\000b\000\000\000\000\000\000\000x\000\000\000\000\000\000\000\247\000\000\000\000\000\000\000]\000\000\000\000\000\000\000G\000\000\000\000\000\000\000X\000\000\000\000\000\000\000\260\000\000\000\000\000\000\000\217\000\000\000\000\000\000\000I\000\000\000\000\000\000\000i\000\000\000\000\000\000\000\214\000\000\000\000\000\000\000`\000\000\000\000\000\000\000\223\000\000\000\000\000\000\000L\000\000\000\000\000\000\000K\000\000\000\000\000\000\000{\000\000\000\000\000\000\000X\000\000\000\000\000\000\000\207\000\000\000\000\000\000\000c\000\000\000\000\000\000\000a\000\000\000\000\000\000\000\177\000\000\000\000\000\000\000L\000\000\000\000\000\000\000E\000\000\000\000\000\000\000d\000\000\000\000\000\000\000\206\000\000\000\000\000\000\000\217\000\000\000\000\000\000\000<\000\000\000\000\000\000\000\205\000\000\000\000\000\000\000\\\000\000\000\000\000\000\000\203\000\000\000\000\000\000\000Z\000\000\000\000\000\000\000@\000\000\000\000\000\000\000\211\000\000\000\000\000\000\000<\000\000\000\000\000\000\000t\000\000\000\000\000\000\000:\000\000\000\000\000\000\000T\000\000\000\000\000\000\000s\000\000\000\000\000\000\000a\000\000\000\000\000\000\000a\000\000\000\000\000\000\000\200\000\000\000\000\000\000\000\237\000\000\000\000\000\000\000i\000\000\000\000\000\000\000@\000\000\000\000\000\000\000a\000\000\000\000\000\000\000M\000\000\000\000\000\000\000P\000\000\000\000\000\000\000e\000\000\000\000\000\000\000v\000\000\000\000\000\000\000w\000\000\000\000\000\000\000\223\000\000\000\000\000\000\000\216\000\000\000\000\000\000\000b\000\000\000\000\000\000\000\222\000\000\000\000\000\000\000m\000\000\000\000\000\000\000\206\000\000\000\000\000\000\0004\000\000\000\000\000\000\000E\000\000\000\000\000\000\000j\000\000\000\000\000\000\000`\000\000\000\000\000\000\000B\000\000\000\000\000\000\000i\000\000\000\000\000\000\000z\000\000\000\000\000\000\000<\000\000\000\000\000\000\000\216\000\000\000\000\000\000\000~\000\000\000\000\000\000\000k\000\000\000\000\000\000\000\\\000\000\000\000\000\000\000H\000\000\000\000\000\000\000=\000\000\000\000\000\000\000h\000\000\000\000\000\000\000e\000\000\000\000\000\000\000n\000\000\000\000\000\000\000}\000\000\000\000\000\000\000u\000\000\000\000\000\000\000a\000\000\000\000\000\000\000I\000\000\000\000\000\000\000e\000\000\000\000\000\000\000\203\000\000\000\000\000\000\000~\000\000\000\000\000\000\000v\000\000\000\000\000\000\000^\000\000\000\000\000\000\000N\000\000\000\000\000\000\000R\000\000\000\000\000\000\000Q\000\000\000\000\000\000\000n\000\000\000\000\000\000\000\262\000\000\000\000\000\000\000j\000\000\000\000\000\000\000s\000\000\000\000\000\000\000\234\000\000\000\000\000\000\000v\000\000\000\000\000\000\000>\000\000\000\000\000\000\000r\000\000\000\000\000\000\000T\000\000\000\000\000\000\000U\000\000\000\000\000\000\000H\000\000\000\000\000\000\000\221\000\000\000\000\000\000\000o\000\000\000\000\000\000\000_\000\000\000\000\000\000\000k\000\000\000\000\000\000\000X\000\000\000\000\000\000\000f\000\000\000\000\000\000\000I\000\000\000\000\000\000\000r\000\000\000\000\000\000\000j\000\000\000\000\000\000\000g\000\000\000\000\000\000\000Z\000\000\000\000\000\000\000|\000\000\000\000\000\000\000\210\000\000\000\000\000\000\0006\000\000\000\000\000\000\000\206\000\000\000\000\000\000\000Z\000\000\000\000\000\000\000o\000\000\000\000\000\000\000n\000\000\000\000\000\000\000\272\000\000\000\000\000\000\000G\000\000\000\000\000\000\000A\000\000\000\000\000\000\000\222\000\000\000\000\000\000\0005\000\000\000\000\000\000\000r\000\000\000\000\000\000\000\237\000\000\000\000\000\000\000~\000\000\000\000\000\000\000\213\000\000\000\000\000\000\000h\000\000\000\000\000\000\000b\000\000\000\000\000\000\000j\000\000\000\000\000\000\000b\000\000\000\000\000\000\000P\000\000\000\000\000\000\000(\000\000\000\000\000\000\000\204\000\000\000\000\000\000\000Z\000\000\000\000\000\000\000d\000\000\000\000\000\000\000>\000\000\000\000\000\000\000T\000\000\000\000\000\000\000n\000\000\000\000\000\000\000\200\000\000\000\000\000\000\000\232\000\000\000\000\000\000\000\225\000\000\000\000\000\000\000Z\000\000\000\000\000\000\0006\000\000\000\000\000\000\000u\000\000\000\000\000\000\000k\000\000\000\000\000\000\000\230\000\000\000\000\000\000\000T\000\000\000\000\000\000\000\202\000\000\000\000\000\000\000[\000\000\000\000\000\000\000f\000\000\000\000\000\000\000r\000\000\000\000\000\000\000\253\000\000\000\000\000\000\000I\000\000\000\000\000\000\000n\000\000\000\000\000\000\000i\000\000\000\000\000\000\000m\000\000\000\000\000\000\000|\000\000\000\000\000\000\000y\000\000\000\000\000\000\000k\000\000\000\000\000\000\0006\000\000\000\000\000\000\000q\000\000\000\000\000\000\000u\000\000\000\000\000\000\000\253\000\000\000\000\000\000\000Q\000\000\000\000\000\000\000M\000\000\000\000\000\000\000i\000\000\000\000\000\000\000x\000\000\000\000\000\000\000_\000\000\000\000\000\000\000o\000\000\000\000\000\000\0003\000\000\000\000\000\000\000n\000\000\000\000\000\000\000\200\000\000\000\000\000\000\000]\000\000\000\000\000\000\000x\000\000\000\000\000\000\000N\000\000\000\000\000\000\000R\000\000\000\000\000\000\000k\000\000\000\000\000\000\000R\000\000\000\000\000\000\000A\000\000\000\000\000\000\000\223\000\000\000\000\000\000\000F\000\000\000\000\000\000\000T\000\000\000\000\000\000\000o\000\000\000\000\000\000\000N\000\000\000\000\000\000\000n\000\000\000\000\000\000\000g\000\000\000\000\000\000\000\200\000\000\000\000\000\000\000\250\000\000\000\000\000\000\000L\000\000\000\000\000\000\000\220\000\000\000\000\000\000\0008\000\000\000\000\000\000\000J\000\000\000\000\000\000\000n\000\000\000\000\000\000\000\212\000\000\000\000\000\000\000\235\000\000\000\000\000\000\000q\000\000\000\000\000\000\000S\000\000\000\000\000\000\000>\000\000\000\000\000\000\000a\000\000\000\000\000\000\000\226\000\000\000\000\000\000\000t\000\000\000\000\000\000\000H\000\000\000\000\000\000\000[\000\000\000\000\000\000\000Q\000\000\000\000\000\000\000U\000\000\000\000\000\000\000\232\000\000\000\000\000\000\000w\000\000\000\000\000\000\000e\000\000\000\000\000\000\000_\000\000\000\000\000\000\000{\000\000\000\000\000\000\000Y\000\000\000\000\000\000\000\200\000\000\000\000\000\000\000_\000\000\000\000\000\000\000R\000\000\000\000\000\000\000t\000\000\000\000\000\000\0006\000\000\000\000\000\000\000Z\000\000\000\000\000\000\000<\000\000\000\000\000\000\000@\000\000\000\000\000\000\000=\000\000\000\000\000\000\000h\000\000\000\000\000\000\000F\000\000\000\000\000\000\000\\\000\000\000\000\000\000\000t\000\000\000\000\000\000\000[\000\000\000\000\000\000\000Y\000\000\000\000\000\000\000o\000\000\000\000\000\000\000G\000\000\000\000\000\000\000\207\000\000\000\000\000\000\000P\000\000\000\000\000\000\000b\000\000\000\000\000\000\000x\000\000\000\000\000\000\000\226\000\000\000\000\000\000\000I\000\000\000\000\000\000\000_\000\000\000\000\000\000\000\225\000\000\000\000\000\000\000Y\000\000\000\000\000\000\000h\000\000\000\000\000\000\000T\000\000\000\000\000\000\000T\000\000\000\000\000\000\000\214\000\000\000\000\000\000\000n\000\000\000\000\000\000\000~\000\000\000\000\000\000\000\212\000\000\000\000\000\000\000\237\000\000\000\000\000\000\000|\000\000\000\000\000\000\000i\000\000\000\000\000\000\000U\000\000\000\000\000\000\000@\000\000\000\000\000\000\000O\000\000\000\000\000\000\000h\000\000\000\000\000\000\000v\000\000\000\000\000\000\000l\000\000\000\000\000\000\000[\000\000\000\000\000\000\000\220\000\000\000\000\000\000\000\\\000\000\000\000\000\000\000|\000\000\000\000\000\000\000\\\000\000\000\000\000\000\000X\000\000\000\000\000\000\000M\000\000\000\000\000\000\000P\000\000\000\000\000\000\000\252\000\000\000\000\000\000\000E\000\000\000\000\000\000\000S\000\000\000\000\000\000\000y\000\000\000\000\000\000\000q\000\000\000\000\000\000\000{\000\000\000\000\000\000\000i\000\000\000\000\000\000\000\227\000\000\000\000\000\000\000b\000\000\000\000\000\000\000s\000\000\000\000\000\000\000[\000\000\000\000\000\000\000\261\000\000\000\000\000\000\000;\000\000\000\000\000\000\000C\000\000\000\000\000\000\000l\000\000\000\000\000\000\000p\000\000\000\000\000\000\000T\000\000\000\000\000\000\000\203\000\000\000\000\000\000\000a\000\000\000\000\000\000\000o\000\000\000\000\000\000\000v\000\000\000\000\000\000\000\244\000\000\000\000\000\000\000w\000\000\000\000\000\000\000S\000\000\000\000\000\000\000y\000\000\000\000\000\000\000;\000\000\000\000\000\000\000Z\000\000\000\000\000\000\000f\000\000\000\000\000\000\000\215\000\000\000\000\000\000\000\\\000\000\000\000\000\000\000m\000\000\000\000\000\000\000U\000\000\000\000\000\000\000v\000\000\000\000\000\000\000v\000\000\000\000\000\000\000^\000\000\000\000\000\000\000N\000\000\000\000\000\000\000^\000\000\000\000\000\000\000t\000\000\000\000\000\000\000T\000\000\000\000\000\000\000[\000\000\000\000\000\000\000\\\000\000\000\000\000\000\000\213\000\000\000\000\000\000\000p\000\000\000\000\000\000\000\211\000\000\000\000\000\000\000M\000\000\000\000\000\000\000m\000\000\000\000\000\000\000\242\000\000\000\000\000\000\000a\000\000\000\000\000\000\000b\000\000\000\000\000\000\000\221\000\000\000\000\000\000\000N\000\000\000\000\000\000\000g\000\000\000\000\000\000\000H\000\000\000\000\000\000\000=\000\000\000\000\000\000\000m\000\000\000\000\000\000\000h\000\000\000\000\000\000\000\224\000\000\000\000\000\000\000G\000\000\000\000\000\000\000I\000\000\000\000\000\000\000j\000\000\000\000\000\000\000C\000\000\000\000\000\000\000Q\000\000\000\000\000\000\000\247\000\000\000\000\000\000\000F\000\000\000\000\000\000\000\213\000\000\000\000\000\000\000\207\000\000\000\000\000\000\000S\000\000\000\000\000\000\000e\000\000\000\000\000\000\000\201\000\000\000\000\000\000\000~\000\000\000\000\000\000\000M\000\000\000\000\000\000\000T\000\000\000\000\000\000\000\202\000\000\000\000\000\000\000]\000\000\000\000\000\000\000j\000\000\000\000\000\000\000f\000\000\000\000\000\000\000P\000\000\000\000\000\000\000j\000\000\000\000\000\000\000\274\000\000\000\000\000\000\000V\000\000\000\000\000\000\000q\000\000\000\000\000\000\000\246\000\000\000\000\000\000\000<\000\000\000\000\000\000\000j\000\000\000\000\000\000\000\215\000\000\000\000\000\000\000Z\000\000\000\000\000\000\000K\000\000\000\000\000\000\000\230\000\000\000\000\000\000\000R\000\000\000\000\000\000\000\205\000\000\000\000\000\000\000v\000\000\000\000\000\000\000^\000\000\000\000\000\000\000b\000\000\000\000\000\000\000\207\000\000\000\000\000\000\000\215\000\000\000\000\000\000\000Q\000\000\000\000\000\000\000@\000\000\000\000\000\000\000s\000\000\000\000\000\000\000]\000\000\000\000\000\000\000z\000\000\000\000\000\000\000k\000\000\000\000\000\000\000i\000\000\000\000\000\000\000I\000\000\000\000\000\000\000\177\000\000\000\000\000\000\000%\000\000\000\000\000\000\000\200\000\000\000\000\000\000\000[\000\000\000\000\000\000\000`\000\000\000\000\000\000\000h\000\000\000\000\000\000\000\177\000\000\000\000\000\000\000\205\000\000\000\000\000\000\000l\000\000\000\000\000\000\000\204\000\000\000\000\000\000\000_\000\000\000\000\000\000\000U\000\000\000\000\000\000\000A\000\000\000\000\000\000\000^\000\000\000\000\000\000\000G\000\000\000\000\000\000\000e\000\000\000\000\000\000\000?\000\000\000\000\000\000\000F\000\000\000\000\000\000\000i\000\000\000\000\000\000\000i\000\000\000\000\000\000\000_\000\000\000\000\000\000\000\210\000\000\000\000\000\000\000\271\000\000\000\000\000\000\000]\000\000\000\000\000\000\000\213\000\000\000\000\000\000\000\200\000\000\000\000\000\000\000o\000\000\000\000\000\000\000x\000\000\000\000\000\000\000\200\000\000\000\000\000\000\000c\000\000\000\000\000\000\000D\000\000\000\000\000\000\000m\000\000\000\000\000\000\000|\000\000\000\000\000\000\000I\000\000\000\000\000\000\000o\000\000\000\000\000\000\0004\000\000\000\000\000\000\000{\000\000\000\000\000\000\000\201\000\000\000\000\000\000\000w\000\000\000\000\000\000\000\177\000\000\000\000\000\000\000\235\000\000\000\000\000\000\0004\000\000\000\000\000\000\000k\000\000\000\000\000\000\000\212\000\000\000\000\000\000\000o\000\000\000\000\000\000\000x\000\000\000\000\000\000\000o\000\000\000\000\000\000\000v\000\000\000\000\000\000\000%\000\000\000\000\000\000\000-\000\000\000\000\000\000\000S\000\000\000\000\000\000\000g\000\000\000\000\000\000\000U\000\000\000\000\000\000\000x\000\000\000\000\000\000\000Y\000\000\000\000\000\000\000\205\000\000\000\000\000\000\000]\000\000\000\000\000\000\000I\000\000\000\000\000\000\000V\000\000\000\000\000\000\000x\000\000\000\000\000\000\000?\000\000\000\000\000\000\000\207\000\000\000\000\000\000\000\246\000\000\000\000\000\000\000B\000\000\000\000\000\000\000s\000\000\000\000\000\000\000=\000\000\000\000\000\000\000p\000\000\000\000\000\000\000d\000\000\000\000\000\000\000f\000\000\000\000\000\000\000\233\000\000\000\000\000\000\000\243\000\000\000\000\000\000\000e\000\000\000\000\000\000\000E\000\000\000\000\000\000\000y\000\000\000\000\000\000\000\225\000\000\000\000\000\000\000p\000\000\000\000\000\000\000\245\000\000\000\000\000\000\000X\000\000\000\000\000\000\000p\000\000\000\000\000\000\000X\000\000\000\000\000\000\000\204\000\000\000\000\000\000\000(\000\000\000\000\000\000\0009\000\000\000\000\000\000\000\177\000\000\000\000\000\000\000T\000\000\000\000\000\000\000<\000\000\000\000\000\000\000c\000\000\000\000\000\000\000P\000\000\000\000\000\000\000k\000\000\000\000\000\000\000l\000\000\000\000\000\000\000\177\000\000\000\000\000\000\000N\000\000\000\000\000\000\000f\000\000\000\000\000\000\000[\000\000\000\000\000\000\000N\000\000\000\000\000\000\000`\000\000\000\000\000\000\000\236\000\000\000\000\000\000\000I\000\000\000\000\000\000\000c\000\000\000\000\000\000\000?\000\000\000\000\000\000\000[\000\000\000\000\000\000\000\204\000\000\000\000\000\000\0004\000\000\000\000\000\000\000c\000\000\000\000\000\000\000\207\000\000\000\000\000\000\000n\000\000\000\000\000\000\000n\000\000\000\000\000\000\000B\000\000\000\000\000\000\000T\000\000\000\000\000\000\000B\000\000\000\000\000\000\000~\000\000\000\000\000\000\000v\000\000\000\000\000\000\000_\000\000\000\000\000\000\000\215\000\000\000\000\000\000\000x\000\000\000\000\000\000\000\201\000\000\000\000\000\000\000\214\000\000\000\000\000\000\000g\000\000\000\000\000\000\000`\000\000\000\000\000\000\000\241\000\000\000\000\000\000\000_\000\000\000\000\000\000\000z\000\000\000\000\000\000\000Y\000\000\000\000\000\000\000d\000\000\000\000\000\000\000_\000\000\000\000\000\000\000C\000\000\000\000\000\000\000}\000\000\000\000\000\000\000I\000\000\000\000\000\000\000\202\000\000\000\000\000\000\000O\000\000\000\000\000\000\000v\000\000\000\000\000\000\000;\000\000\000\000\000\000\000Y\000\000\000\000\000\000\000F\000\000\000\000\000\000\000r\000\000\000\000\000\000\000U\000\000\000\000\000\000\000u\000\000\000\000\000\000\000\234\000\000\000\000\000\000\000b\000\000\000\000\000\000\000u\000\000\000\000\000\000\000Q\000\000\000\000\000\000\000C\000\000\000\000\000\000\0003\000\000\000\000\000\000\000o\000\000\000\000\000\000\000D\000\000\000\000\000\000\000N\000\000\000\000\000\000\000M\000\000\000\000\000\000\000T\000\000\000\000\000\000\000Z\000\000\000\000\000\000\000(\000\000\000\000\000\000\000S\000\000\000\000\000\000\000y\000\000\000\000\000\000\000|\000\000\000\000\000\000\000\202\000\000\000\000\000\000\000\240\000\000\000\000\000\000\000R\000\000\000\000\000\000\000c\000\000\000\000\000\000\000o\000\000\000\000\000\000\000\222\000\000\000\000\000\000\000i\000\000\000\000\000\000\000\210\000\000\000\000\000\000\000D\000\000\000\000\000\000\000v\000\000\000\000\000\000\000L\000\000\000\000\000\000\000S\000\000\000\000\000\000\000]\000\000\000\000\000\000\000M\000\000\000\000\000\000\000;\000\000\000\000\000\000\000\205\000\000\000\000\000\000\000{\000\000\000\000\000\000\000\205\000\000\000\000\000\000\000;\000\000\000\000\000\000\000n\000\000\000\000\000\000\000\216\000\000\000\000\000\000\000y\000\000\000\000\000\000\000C\000\000\000\000\000\000\0007\000\000\000\000\000\000\0007\000\000\000\000\000\000\000t\000\000\000\000\000\000\000q\000\000\000\000\000\000\000[\000\000\000\000\000\000\000y\000\000\000\000\000\000\000a\000\000\000\000\000\000\000f\000\000\000\000\000\000\0007\000\000\000\000\000\000\000G\000\000\000\000\000\000\000*\000\000\000\000\000\000\000~\000\000\000\000\000\000\000{\000\000\000\000\000\000\000r\000\000\000\000\000\000\000k\000\000\000\000\000\000\000\177\000\000\000\000\000\000\000M\000\000\000\000\000\000\000n\000\000\000\000\000\000\000\177\000\000\000\000\000\000\0004\000\000\000\000\000\000\000u\000\000\000\000\000\000\000\212\000\000\000\000\000\000\000f\000\000\000\000\000\000\000M\000\000\000\000\000\000\000o\000\000\000\000\000\000\000V\000\000\000\000\000\000\000v\000\000\000\000\000\000\000[\000\000\000\000\000\000\000u\000\000\000\000\000\000\000\200\000\000\000\000\000\000\0006\000\000\000\000\000\000\000S\000\000\000\000\000\000\000l\000\000\000\000\000\000\0007\000\000\000\000\000\000\0007\000\000\000\000\000\000\000Y\000\000\000\000\000\000\000u\000\000\000\000\000\000\000t\000\000\000\000\000\000\000j\000\000\000\000\000\000\000\311\000\000\000\000\000\000\000x\000\000\000\000\000\000\000=\000\000\000\000\000\000\000j\000\000\000\000\000\000\000\206\000\000\000\000\000\000\000\207\000\000\000\000\000\000\000Q\000\000\000\000\000\000\000\210\000\000\000\000\000\000\000A\000\000\000\000\000\000\000Q\000\000\000\000\000\000\000c\000\000\000\000\000\000\000\216\000\000\000\000\000\000\000\203\000\000\000\000\000\000\000f\000\000\000\000\000\000\000{\000\000\000\000\000\000\000~\000\000\000\000\000\000\000;\000\000\000\000\000\000\000c\000\000\000\000\000\000\000L\000\000\000\000\000\000\000p\000\000\000\000\000\000\000o\000\000\000\000\000\000\000P\000\000\000\000\000\000\000j\000\000\000\000\000\000\000{\000\000\000\000\000\000\000c\000\000\000\000\000\000\000]\000\000\000\000\000\000\000\206\000\000\000\000\000\000\000X\000\000\000\000\000\000\000G\000\000\000\000\000\000\000*\000\000\000\000\000\000\000[\000\000\000\000\000\000\000N\000\000\000\000\000\000\000\207\000\000\000\000\000\000\000\200\000\000\000\000\000\000\000M\000\000\000\000\000\000\000Q\000\000\000\000\000\000\000s\000\000\000\000\000\000\000N\000\000\000\000\000\000\000\\\000\000\000\000\000\000\000Z\000\000\000\000\000\000\000y\000\000\000\000\000\000\000\270\000\000\000\000\000\000\000\244\000\000\000\000\000\000\000q\000\000\000\000\000\000\000g\000\000\000\000\000\000\000S\000\000\000\000\000\000\000K\000\000\000\000\000\000\000\207\000\000\000\000\000\000\000V\000\000\000\000\000\000\000\177\000\000\000\000\000\000\000^\000\000\000\000\000\000\000_\000\000\000\000\000\000\000J\000\000\000\000\000\000\000f\000\000\000\000\000\000\000_\000\000\000\000\000\000\000g\000\000\000\000\000\000\000t\000\000\000\000\000\000\000E\000\000\000\000\000\000\000\265\000\000\000\000\000\000\000\204\000\000\000\000\000\000\000l\000\000\000\000\000\000\000\224\000\000\000\000\000\000\000[\000\000\000\000\000\000\000K\000\000\000\000\000\000\000\210\000\000\000\000\000\000\000S\000\000\000\000\000\000\000~\000\000\000\000\000\000\000p\000\000\000\000\000\000\000o\000\000\000\000\000\000\000W\000\000\000\000\000\000\000\202\000\000\000\000\000\000\000\204\000\000\000\000\000\000\000Q\000\000\000\000\000\000\000\201\000\000\000\000\000\000\000h\000\000\000\000\000\000\000Q\000\000\000\000\000\000\0007\000\000\000\000\000\000\000z\000\000\000\000\000\000\000z\000\000\000\000\000\000\000R\000\000\000\000\000\000\000w\000\000\000\000\000\000\000v\000\000\000\000\000\000\000R\000\000\000\000\000\000\0008\000\000\000\000\000\000\000r\000\000\000\000\000\000\000E\000\000\000\000\000\000\000z\000\000\000\000\000\000\000\267\000\000\000\000\000\000\000\206\000\000\000\000\000\000\000]\000\000\000\000\000\000\000h\000\000\000\000\000\000\000\213\000\000\000\000\000\000\000i\000\000\000\000\000\000\000s\000\000\000\000\000\000\000Q\000\000\000\000\000\000\000Q\000\000\000\000\000\000\000j\000\000\000\000\000\000\000?\000\000\000\000\000\000\000M\000\000\000\000\000\000\000\\\000\000\000\000\000\000\000W\000\000\000\000\000\000\000r\000\000\000\000\000\000\000u\000\000\000\000\000\000\000I\000\000\000\000\000\000\000C\000\000\000\000\000\000\000]\000\000\000\000\000\000\000m\000\000\000\000\000\000\000>\000\000\000\000\000\000\000u\000\000\000\000\000\000\000\204\000\000\000\000\000\000\000\210\000\000\000\000\000\000\000\202\000\000\000\000\000\000\000K\000\000\000\000\000\000\000z\000\000\000\000\000\000\000u\000\000\000\000\000\000\000}\000\000\000\000\000\000\000x\000\000\000\000\000\000\000B\000\000\000\000\000\000\000\207\000\000\000\000\000\000\000\205\000\000\000\000\000\000\000q\000\000\000\000\000\000\000m\000\000\000\000\000\000\000u\000\000\000\000\000\000\000\201\000\000\000\000\000\000\000K\000\000\000\000\000\000\000P\000\000\000\000\000\000\000\200\000\000\000\000\000\000\000K\000\000\000\000\000\000\000s\000\000\000\000\000\000\000l\000\000\000\000\000\000\000\220\000\000\000\000\000\000\000\270\000\000\000\000\000\000\000_\000\000\000\000\000\000\000n\000\000\000\000\000\000\000R\000\000\000\000\000\000\0007\000\000\000\000\000\000\000<\000\000\000\000\000\000\000t\000\000\000\000\000\000\000[\000\000\000\000\000\000\000[\000\000\000\000\000\000\000R\000\000\000\000\000\000\000\205\000\000\000\000\000\000\0004\000\000\000\000\000\000\000Y\000\000\000\000\000\000\000s\000\000\000\000\000\000\000i\000\000\000\000\000\000\0001\000\000\000\000\000\000\000C\000\000\000\000\000\000\000Z\000\000\000\000\000\000\000;\000\000\000\000\000\000\000R\000\000\000\000\000\000\000l\000\000\000\000\000\000\000\240\000\000\000\000\000\000\000z\000\000\000\000\000\000\000;\000\000\000\000\000\000\000\212\000\000\000\000\000\000\000Y\000\000\000\000\000\000\000R\000\000\000\000\000\000\000^\000\000\000\000\000\000\000\202\000\000\000\000\000\000\000[\000\000\000\000\000\000\000f\000\000\000\000\000\000\000e\000\000\000\000\000\000\000V\000\000\000\000\000\000\000P\000\000\000\000\000\000\000\237\000\000\000\000\000\000\000{\000\000\000\000\000\000\000{\000\000\000\000\000\000\000C\000\000\000\000\000\000\000\216\000\000\000\000\000\000\000N\000\000\000\000\000\000\000\231\000\000\000\000\000\000\000h\000\000\000\000\000\000\000k\000\000\000\000\000\000\000D\000\000\000\000\000\000\000d\000\000\000\000\000\000\000c\000\000\000\000\000\000\000\200\000\000\000\000\000\000\000\243\000\000\000\000\000\000\000\220\000\000\000\000\000\000\000l\000\000\000\000\000\000\000\204\000\000\000\000\000\000\000l\000\000\000\000\000\000\000\\\000\000\000\000\000\000\000\233\000\000\000\000\000\000\000n\000\000\000\000\000\000\000m\000\000\000\000\000\000\000@\000\000\000\000\000\000\000p\000\000\000\000\000\000\000K\000\000\000\000\000\000\000|\000\000\000\000\000\000\000I\000\000\000\000\000\000\000f\000\000\000\000\000\000\000m\000\000\000\000\000\000\000\\\000\000\000\000\000\000\000\217\000\000\000\000\000\000\000\207\000\000\000\000\000\000\000\177\000\000\000\000\000\000\000\\\000\000\000\000\000\000\000j\000\000\000\000\000\000\000}\000\000\000\000\000\000\000[\000\000\000\000\000\000\000\217\000\000\000\000\000\000\000\300\000\000\000\000\000\000\000Y\000\000\000\000\000\000\000R\000\000\000\000\000\000\000\221\000\000\000\000\000\000\000E\000\000\000\000\000\000\000Y\000\000\000\000\000\000\000K\000\000\000\000\000\000\000>\000\000\000\000\000\000\000f\000\000\000\000\000\000\000B\000\000\000\000\000\000\000/\000\000\000\000\000\000\000d\000\000\000\000\000\000\000_\000\000\000\000\000\000\000K\000\000\000\000\000\000\000T\000\000\000\000\000\000\000/\000\000\000\000\000\000\000c\000\000\000\000\000\000\000k\000\000\000\000\000\000\000d\000\000\000\000\000\000\000R\000\000\000\000\000\000\000Y\000\000\000\000\000\000\0007\000\000\000\000\000\000\000H\000\000\000\000\000\000\000O\000\000\000\000\000\000\000s\000\000\000\000\000\000\000\177\000\000\000\000\000\000\000\217\000\000\000\000\000\000\0008\000\000\000\000\000\000\0009\000\000\000\000\000\000\000f\000\000\000\000\000\000\000_\000\000\000\000\000\000\000\202\000\000\000\000\000\000\000\207\000\000\000\000\000\000\000v\000\000\000\000\000\000\000\177\000\000\000\000\000\000\000b\000\000\000\000\000\000\000t\000\000\000\000\000\000\000o\000\000\000\000\000\000\000B\000\000\000\000\000\000\0003\000\000\000\000\000\000\000~\000\000\000\000\000\000\000\202\000\000\000\000\000\000\000N\000\000\000\000\000\000\000}\000\000\000\000\000\000\000(\000\000\000\000\000\000\000t\000\000\000\000\000\000\000e\000\000\000\000\000\000\000\313\000\000\000\000\000\000\000L\000\000\000\000\000\000\000Y\000\000\000\000\000\000\000\207\000\000\000\000\000\000\000I\000\000\000\000\000\000\0009\000\000\000\000\000\000\000c\000\000\000\000\000\000\000h\000\000\000\000\000\000\000x\000\000\000\000\000\000\000M\000\000\000\000\000\000\000x\000\000\000\000\000\000\000i\000\000\000\000\000\000\000\214\000\000\000\000\000\000\000I\000\000\000\000\000\000\000U\000\000\000\000\000\000\000g\000\000\000\000\000\000\000c\000\000\000\000\000\000\000j\000\000\000\000\000\000\000>\000\000\000\000\000\000\000?\000\000\000\000\000\000\000t\000\000\000\000\000\000\000w\000\000\000\000\000\000\000b\000\000\000\000\000\000\000;\000\000\000\000\000\000\000t\000\000\000\000\000\000\000d\000\000\000\000\000\000\000O\000\000\000\000\000\000\000:\000\000\000\000\000\000\000d\000\000\000\000\000\000\000~\000\000\000\000\000\000\000\204\000\000\000\000\000\000\000P\000\000\000\000\000\000\000\202\000\000\000\000\000\000\000N\000\000\000\000\000\000\000k\000\000\000\000\000\000\000L\000\000\000\000\000\000\000Y\000\000\000\000\000\000\000h\000\000\000\000\000\000\000S\000\000\000\000\000\000\0007\000\000\000\000\000\000\000:\000\000\000\000\000\000\000y\000\000\000\000\000\000\000r\000\000\000\000\000\000\0001\000\000\000\000\000\000\000-\000\000\000\000\000\000\000E\000\000\000\000\000\000\000]\000\000\000\000\000\000\000J\000\000\000\000\000\000\000W\000\000\000\000\000\000\000\212\000\000\000\000\000\000\000y\000\000\000\000\000\000\000.\000\000\000\000\000\000\000\202\000\000\000\000\000\000\000\214\000\000\000\000\000\000\000]\000\000\000\000\000\000\000M\000\000\000\000\000\000\000\264\000\000\000\000\000\000\000m\000\000\000\000\000\000\000S\000\000\000\000\000\000\000b\000\000\000\000\000\000\000l\000\000\000\000\000\000\000\316\000\000\000\000\000\000\000|\000\000\000\000\000\000\000\\\000\000\000\000\000\000\000=\000\000\000\000\000\000\000b\000\000\000\000\000\000\000l\000\000\000\000\000\000\000\222\000\000\000\000\000\000\000M\000\000\000\000\000\000\000m\000\000\000\000\000\000\000L\000\000\000\000\000\000\000W\000\000\000\000\000\000\000M\000\000\000\000\000\000\000\200\000\000\000\000\000\000\000E\000\000\000\000\000\000\000\214\000\000\000\000\000\000\000]\000\000\000\000\000\000\000b\000\000\000\000\000\000\000O\000\000\000\000\000\000\000~\000\000\000\000\000\000\000k\000\000\000\000\000\000\000=\000\000\000\000\000\000\000d\000\000\000\000\000\000\000\222\000\000\000\000\000\000\000C\000\000\000\000\000\000\000W\000\000\000\000\000\000\000H\000\000\000\000\000\000\000k\000\000\000\000\000\000\000X\000\000\000\000\000\000\000J\000\000\000\000\000\000\000C\000\000\000\000\000\000\000k\000\000\000\000\000\000\000c\000\000\000\000\000\000\000f\000\000\000\000\000\000\000\251\000\000\000\000\000\000\000H\000\000\000\000\000\000\000f\000\000\000\000\000\000\000G\000\000\000\000\000\000\000|\000\000\000\000\000\000\000Z\000\000\000\000\000\000\000}\000\000\000\000\000\000\000\211\000\000\000\000\000\000\000I\000\000\000\000\000\000\000q\000\000\000\000\000\000\000`\000\000\000\000\000\000\000\212\000\000\000\000\000\000\0002\000\000\000\000\000\000\000Z\000\000\000\000\000\000\0007\000\000\000\000\000\000\000U\000\000\000\000\000\000\000j\000\000\000\000\000\000\000C\000\000\000\000\000\000\000k\000\000\000\000\000\000\000e\000\000\000\000\000\000\0006\000\000\000\000\000\000\000\\\000\000\000\000\000\000\000~\000\000\000\000\000\000\000d\000\000\000\000\000\000\000|\000\000\000\000\000\000\000K\000\000\000\000\000\000\000C\000\000\000\000\000\000\000\307\000\000\000\000\000\000\000\327\000\000\000\000\000\000\000\222\000\000\000\000\000\000\000-\000\000\000\000\000\000\000\242\000\000\000\000\000\000\000t\000\000\000\000\000\000\000f\000\000\000\000\000\000\000\207\000\000\000\000\000\000\000Q\000\000\000\000\000\000\000f\000\000\000\000\000\000\000P\000\000\000\000\000\000\000g\000\000\000\000\000\000\000\201\000\000\000\000\000\000\000f\000\000\000\000\000\000\000x\000\000\000\000\000\000\000Y\000\000\000\000\000\000\000f\000\000\000\000\000\000\000x\000\000\000\000\000\000\000l\000\000\000\000\000\000\000\221\000\000\000\000\000\000\000C\000\000\000\000\000\000\000\213\000\000\000\000\000\000\000\215\000\000\000\000\000\000\000I\000\000\000\000\000\000\000@\000\000\000\000\000\000\000a\000\000\000\000\000\000\000\222\000\000\000\000\000\000\000?\000\000\000\000\000\000\000g\000\000\000\000\000\000\000m\000\000\000\000\000\000\000f\000\000\000\000\000\000\000V\000\000\000\000\000\000\000l\000\000\000\000\000\000\000a\000\000\000\000\000\000\000l\000\000\000\000\000\000\000n\000\000\000\000\000\000\000|\000\000\000\000\000\000\000\242\000\000\000\000\000\000\000j\000\000\000\000\000\000\000L\000\000\000\000\000\000\000T\000\000\000\000\000\000\000\211\000\000\000\000\000\000\000C\000\000\000\000\000\000\000Z\000\000\000\000\000\000\000F\000\000\000\000\000\000\0007\000\000\000\000\000\000\000\212\000\000\000\000\000\000\000q\000\000\000\000\000\000\000`\000\000\000\000\000\000\000n\000\000\000\000\000\000\000l\000\000\000\000\000\000\000\177\000\000\000\000\000\000\000\177\000\000\000\000\000\000\000s\000\000\000\000\000\000\000q\000\000\000\000\000\000\000e\000\000\000\000\000\000\000G\000\000\000\000\000\000\000*\000\000\000\000\000\000\000V\000\000\000\000\000\000\000;\000\000\000\000\000\000\000\242\000\000\000\000\000\000\000Z\000\000\000\000\000\000\000\303\000\000\000\000\000\000\000`\000\000\000\000\000\000\000\214\000\000\000\000\000\000\000\210\000\000\000\000\000\000\000N\000\000\000\000\000\000\000[\000\000\000\000\000\000\000J\000\000\000\000\000\000\000k\000\000\000\000\000\000\000r\000\000\000\000\000\000\000l\000\000\000\000\000\000\000a\000\000\000\000\000\000\000}\000\000\000\000\000\000\000_\000\000\000\000\000\000\000\177\000\000\000\000\000\000\000K\000\000\000\000\000\000\000w\000\000\000\000\000\000\000K\000\000\000\000\000\000\000\203\000\000\000\000\000\000\000\234\000\000\000\000\000\000\000\200\000\000\000\000\000\000\000u\000\000\000\000\000\000\000P\000\000\000\000\000\000\000J\000\000\000\000\000\000\000X\000\000\000\000\000\000\000c\000\000\000\000\000\000\000l\000\000\000\000\000\000\000r\000\000\000\000\000\000\000Q\000\000\000\000\000\000\000}\000\000\000\000\000\000\000Q\000\000\000\000\000\000\000e\000\000\000\000\000\000\000T\000\000\000\000\000\000\000v\000\000\000\000\000\000\000\207\000\000\000\000\000\000\000\\\000\000\000\000\000\000\000P\000\000\000\000\000\000\000\206\000\000\000\000\000\000\000E\000\000\000\000\000\000\000|\000\000\000\000\000\000\000K\000\000\000\000\000\000\000l\000\000\000\000\000\000\000i\000\000\000\000\000\000\000?\000\000\000\000\000\000\000G\000\000\000\000\000\000\000k\000\000\000\000\000\000\000\\\000\000\000\000\000\000\000\201\000\000\000\000\000\000\000q\000\000\000\000\000\000\000P\000\000\000\000\000\000\000\200\000\000\000\000\000\000\000x\000\000\000\000\000\000\000\202\000\000\000\000\000\000\0008\000\000\000\000\000\000\000f\000\000\000\000\000\000\000}\000\000\000\000\000\000\0009\000\000\000\000\000\000\000q\000\000\000\000\000\000\000~\000\000\000\000\000\000\000J\000\000\000\000\000\000\000\177\000\000\000\000\000\000\000Y\000\000\000\000\000\000\000`\000\000\000\000\000\000\000\215\000\000\000\000\000\000\000\200\000\000\000\000\000\000\000U\000\000\000\000\000\000\000S\000\000\000\000\000\000\000n\000\000\000\000\000\000\000i\000\000\000\000\000\000\000\\\000\000\000\000\000\000\000l\000\000\000\000\000\000\000d\000\000\000\000\000\000\000h\000\000\000\000\000\000\000c\000\000\000\000\000\000\000h\000\000\000\000\000\000\000\206\000\000\000\000\000\000\000O\000\000\000\000\000\000\000~\000\000\000\000\000\000\000e\000\000\000\000\000\000\000+\000\000\000\000\000\000\000\225\000\000\000\000\000\000\000{\000\000\000\000\000\000\000\227\000\000\000\000\000\000\000R\000\000\000\000\000\000\000F\000\000\000\000\000\000\000\235\000\000\000\000\000\000\000_\000\000\000\000\000\000\000\201\000\000\000\000\000\000\000F\000\000\000\000\000\000\000\\\000\000\000\000\000\000\000\212\000\000\000\000\000\000\000`\000\000\000\000\000\000\000T\000\000\000\000\000\000\000`\000\000\000\000\000\000\000T\000\000\000\000\000\000\000s\000\000\000\000\000\000\000\225\000\000\000\000\000\000\0004\000\000\000\000\000\000\000\177\000\000\000\000\000\000\000`\000\000\000\000\000\000\000D\000\000\000\000\000\000\000d\000\000\000\000\000\000\000A\000\000\000\000\000\000\000\247\000\000\000\000\000\000\000e\000\000\000\000\000\000\000|\000\000\000\000\000\000\000g\000\000\000\000\000\000\000\242\000\000\000\000\000\000\000]\000\000\000\000\000\000\000\203\000\000\000\000\000\000\000\200\000\000\000\000\000\000\000p\000\000\000\000\000\000\000t\000\000\000\000\000\000\000\217\000\000\000\000\000\000\000T\000\000\000\000\000\000\000f\000\000\000\000\000\000\0002\000\000\000\000\000\000\000E\000\000\000\000\000\000\000\206\000\000\000\000\000\000\000n\000\000\000\000\000\000\000U\000\000\000\000\000\000\000c\000\000\000\000\000\000\000\225\000\000\000\000\000\000\000|\000\000\000\000\000\000\000|\000\000\000\000\000\000\000a\000\000\000\000\000\000\0006\000\000\000\000\000\000\000q\000\000\000\000\000\000\000w\000\000\000\000\000\000\000O\000\000\000\000\000\000\000K\000\000\000\000\000\000\000T\000\000\000\000\000\000\000?\000\000\000\000\000\000\000;\000\000\000\000\000\000\000\201\000\000\000\000\000\000\000^\000\000\000\000\000\000\000[\000\000\000\000\000\000\000A\000\000\000\000\000\000\000c\000\000\000\000\000\000\000\246\000\000\000\000\000\000\000;\000\000\000\000\000\000\000k\000\000\000\000\000\000\000y\000\000\000\000\000\000\000m\000\000\000\000\000\000\000q\000\000\000\000\000\000\000X\000\000\000\000\000\000\000S\000\000\000\000\000\000\000:\000\000\000\000\000\000\0003\000\000\000\000\000\000\000c\000\000\000\000\000\000\000d\000\000\000\000\000\000\000B\000\000\000\000\000\000\000P\000\000\000\000\000\000\000v\000\000\000\000\000\000\000x\000\000\000\000\000\000\000\346\000\000\000\000\000\000\000M\000\000\000\000\000\000\000r\000\000\000\000\000\000\000k\000\000\000\000\000\000\000H\000\000\000\000\000\000\000M\000\000\000\000\000\000\000\206\000\000\000\000\000\000\000\231\000\000\000\000\000\000\000C\000\000\000\000\000\000\000w\000\000\000\000\000\000\000y\000\000\000\000\000\000\000`\000\000\000\000\000\000\000y\000\000\000\000\000\000\000a\000\000\000\000\000\000\000j\000\000\000\000\000\000\000^\000\000\000\000\000\000\000\227\000\000\000\000\000\000\000x\000\000\000\000\000\000\000.\000\000\000\000\000\000\000~\000\000\000\000\000\000\000{\000\000\000\000\000\000\000U\000\000\000\000\000\000\000g\000\000\000\000\000\000\000J\000\000\000\000\000\000\000H\000\000\000\000\000\000\0006\000\000\000\000\000\000\000C\000\000\000\000\000\000\000\234\000\000\000\000\000\000\000\203\000\000\000\000\000\000\000:\000\000\000\000\000\000\000c\000\000\000\000\000\000\000n\000\000\000\000\000\000\000m\000\000\000\000\000\000\000?\000\000\000\000\000\000\000D\000\000\000\000\000\000\000+\000\000\000\000\000\000\000R\000\000\000\000\000\000\000h\000\000\000\000\000\000\000v\000\000\000\000\000\000\000R\000\000\000\000\000\000\000x\000\000\000\000\000\000\000F\000\000\000\000\000\000\000N\000\000\000\000\000\000\000*\000\000\000\000\000\000\000<\000\000\000\000\000\000\000e\000\000\000\000\000\000\000i\000\000\000\000\000\000\000\233\000\000\000\000\000\000\000R\000\000\000\000\000\000\000\317\000\000\000\000\000\000\000|\000\000\000\000\000\000\000\202\000\000\000\000\000\000\000}\000\000\000\000\000\000\000\202\000\000\000\000\000\000\000T\000\000\000\000\000\000\000n\000\000\000\000\000\000\000\214\000\000\000\000\000\000\000\177\000\000\000\000\000\000\000X\000\000\000\000\000\000\000}\000\000\000\000\000\000\000O\000\000\000\000\000\000\000\325\000\000\000\000\000\000\000t\000\000\000\000\000\000\000y\000\000\000\000\000\000\0009\000\000\000\000\000\000\000G\000\000\000\000\000\000\000T\000\000\000\000\000\000\000\232\000\000\000\000\000\000\000\\\000\000\000\000\000\000\000y\000\000\000\000\000\000\000b\000\000\000\000\000\000\000E\000\000\000\000\000\000\000r\000\000\000\000\000\000\000K\000\000\000\000\000\000\000o\000\000\000\000\000\000\000\232\000\000\000\000\000\000\000e\000\000\000\000\000\000\000f\000\000\000\000\000\000\000A\000\000\000\000\000\000\000Y\000\000\000\000\000\000\000\220\000\000\000\000\000\000\000k\000\000\000\000\000\000\000F\000\000\000\000\000\000\000\207\000\000\000\000\000\000\0007\000\000\000\000\000\000\000`\000\000\000\000\000\000\000E\000\000\000\000\000\000\000t\000\000\000\000\000\000\000n\000\000\000\000\000\000\000;\000\000\000\000\000\000\000{\000\000\000\000\000\000\000K\000\000\000\000\000\000\000|\000\000\000\000\000\000\000\201\000\000\000\000\000\000\000T\000\000\000\000\000\000\000x\000\000\000\000\000\000\000\205\000\000\000\000\000\000\000n\000\000\000\000\000\000\0008\000\000\000\000\000\000\000\273\000\000\000\000\000\000\000o\000\000\000\000\000\000\000?\000\000\000\000\000\000\000\220\000\000\000\000\000\000\000@\000\000\000\000\000\000\000F\000\000\000\000\000\000\000e\000\000\000\000\000\000\000h\000\000\000\000\000\000\000n\000\000\000\000\000\000\000R\000\000\000\000\000\000\0007\000\000\000\000\000\000\000N\000\000\000\000\000\000\000w\000\000\000\000\000\000\000^\000\000\000\000\000\000\000S\000\000\000\000\000\000\000|\000\000\000\000\000\000\000m\000\000\000\000\000\000\000`\000\000\000\000\000\000\000a\000\000\000\000\000\000\000c\000\000\000\000\000\000\000M\000\000\000\000\000\000\0008\000\000\000\000\000\000\000\207\000\000\000\000\000\000\000\210\000\000\000\000\000\000\000\217\000\000\000\000\000\000\000@\000\000\000\000\000\000\000K\000\000\000\000\000\000\000P\000\000\000\000\000\000\000\271\000\000\000\000\000\000\000d\000\000\000\000\000\000\000X\000\000\000\000\000\000\000V\000\000\000\000\000\000\000h\000\000\000\000\000\000\000M\000\000\000\000\000\000\000c\000\000\000\000\000\000\000p\000\000\000\000\000\000\000Y\000\000\000\000\000\000\000j\000\000\000\000\000\000\000\235\000\000\000\000\000\000\000S\000\000\000\000\000\000\000C\000\000\000\000\000\000\000V\000\000\000\000\000\000\000I\000\000\000\000\000\000\000O\000\000\000\000\000\000\000\\\000\000\000\000\000\000\000y\000\000\000\000\000\000\000i\000\000\000\000\000\000\000\236\000\000\000\000\000\000\000j\000\000\000\000\000\000\000\226\000\000\000\000\000\000\000\202\000\000\000\000\000\000\000[\000\000\000\000\000\000\000j\000\000\000\000\000\000\000W\000\000\000\000\000\000\000W\000\000\000\000\000\000\000\207\000\000\000\000\000\000\000h\000\000\000\000\000\000\000\224\000\000\000\000\000\000\000k\000\000\000\000\000\000\000h\000\000\000\000\000\000\000\202\000\000\000\000\000\000\000m\000\000\000\000\000\000\000n\000\000\000\000\000\000\000\230\000\000\000\000\000\000\000[\000\000\000\000\000\000\000\215\000\000\000\000\000\000\000;\000\000\000\000\000\000\000z\000\000\000\000\000\000\000c\000\000\000\000\000\000\000t\000\000\000\000\000\000\000Z\000\000\000\000\000\000\000p\000\000\000\000\000\000\000`\000\000\000\000\000\000\000j\000\000\000\000\000\000\000e\000\000\000\000\000\000\000\202\000\000\000\000\000\000\000S\000\000\000\000\000\000\000\200\000\000\000\000\000\000\000\201\000\000\000\000\000\000\000U\000\000\000\000\000\000\000n\000\000\000\000\000\000\0000\000\000\000\000\000\000\000~\000\000\000\000\000\000\000X\000\000\000\000\000\000\000^\000\000\000\000\000\000\000L\000\000\000\000\000\000\000\237\000\000\000\000\000\000\000s\000\000\000\000\000\000\000s\000\000\000\000\000\000\000d\000\000\000\000\000\000\000g\000\000\000\000\000\000\000\201\000\000\000\000\000\000\000k\000\000\000\000\000\000\000V\000\000\000\000\000\000\000W\000\000\000\000\000\000\0002\000\000\000\000\000\000\000u\000\000\000\000\000\000\000\270\000\000\000\000\000\000\000a\000\000\000\000\000\000\000@\000\000\000\000\000\000\000X\000\000\000\000\000\000\000e\000\000\000\000\000\000\000v\000\000\000\000\000\000\000r\000\000\000\000\000\000\000R\000\000\000\000\000\000\000M\000\000\000\000\000\000\000j\000\000\000\000\000\000\000<\000\000\000\000\000\000\000I\000\000\000\000\000\000\000n\000\000\000\000\000\000\000\214\000\000\000\000\000\000\000R\000\000\000\000\000\000\000l\000\000\000\000\000\000\000E\000\000\000\000\000\000\000e\000\000\000\000\000\000\000_\000\000\000\000\000\000\000B\000\000\000\000\000\000\000Q\000\000\000\000\000\000\000k\000\000\000\000\000\000\000L\000\000\000\000\000\000\000m\000\000\000\000\000\000\000j\000\000\000\000\000\000\000Q\000\000\000\000\000\000\000\246\000\000\000\000\000\000\000p\000\000\000\000\000\000\000\234\000\000\000\000\000\000\000>\000\000\000\000\000\000\000t\000\000\000\000\000\000\000q\000\000\000\000\000\000\000x\000\000\000\000\000\000\000T\000\000\000\000\000\000\000_\000\000\000\000\000\000\000S\000\000\000\000\000\000\000Z\000\000\000\000\000\000\000x\000\000\000\000\000\000\000\177\000\000\000\000\000\000\000t\000\000\000\000\000\000\000@\000\000\000\000\000\000\000S\000\000\000\000\000\000\000g\000\000\000\000\000\000\000>\000\000\000\000\000\000\000G\000\000\000\000\000\000\0001\000\000\000\000\000\000\000Z\000\000\000\000\000\000\000}\000\000\000\000\000\000\000$\000\000\000\000\000\000\000E\000\000\000\000\000\000\000d\000\000\000\000\000\000\000I\000\000\000\000\000\000\000\205\000\000\000\000\000\000\000f\000\000\000\000\000\000\000[\000\000\000\000\000\000\000E\000\000\000\000\000\000\000O\000\000\000\000\000\000\000k\000\000\000\000\000\000\000\226\000\000\000\000\000\000\000\247\000\000\000\000\000\000\000\317\000\000\000\000\000\000\000X\000\000\000\000\000\000\0004\000\000\000\000\000\000\000L\000\000\000\000\000\000\000x\000\000\000\000\000\000\000j\000\000\000\000\000\000\000\212\000\000\000\000\000\000\000Q\000\000\000\000\000\000\000\200\000\000\000\000\000\000\000^\000\000\000\000\000\000\000\203\000\000\000\000\000\000\000M\000\000\000\000\000\000\000\203\000\000\000\000\000\000\000>\000\000\000\000\000\000\000s\000\000\000\000\000\000\000Y\000\000\000\000\000\000\000\200\000\000\000\000\000\000\000\207\000\000\000\000\000\000\000r\000\000\000\000\000\000\000^\000\000\000\000\000\000\000a\000\000\000\000\000\000\000\270\000\000\000\000\000\000\000i\000\000\000\000\000\000\000X\000\000\000\000\000\000\0001\000\000\000\000\000\000\000t\000\000\000\000\000\000\000X\000\000\000\000\000\000\000t\000\000\000\000\000\000\000\210\000\000\000\000\000\000\000N\000\000\000\000\000\000\000{\000\000\000\000\000\000\000o\000\000\000\000\000\000\000=\000\000\000\000\000\000\000y\000\000\000\000\000\000\000\231\000\000\000\000\000\000\000\207\000\000\000\000\000\000\000T\000\000\000\000\000\000\000|\000\000\000\000\000\000\000S\000\000\000\000\000\000\000;\000\000\000\000\000\000\000A\000\000\000\000\000\000\000s\000\000\000\000\000\000\000\266\000\000\000\000\000\000\000J\000\000\000\000\000\000\000\250\000\000\000\000\000\000\000V\000\000\000\000\000\000\000]\000\000\000\000\000\000\000l\000\000\000\000\000\000\000J\000\000\000\000\000\000\000I\000\000\000\000\000\000\000m\000\000\000\000\000\000\0008\000\000\000\000\000\000\000\207\000\000\000\000\000\000\000a\000\000\000\000\000\000\000l\000\000\000\000\000\000\0008\000\000\000\000\000\000\000u\000\000\000\000\000\000\000[\000\000\000\000\000\000\000_\000\000\000\000\000\000\000=\000\000\000\000\000\000\000t\000\000\000\000\000\000\000\205\000\000\000\000\000\000\000\215\000\000\000\000\000\000\000\222\000\000\000\000\000\000\000Q\000\000\000\000\000\000\000q\000\000\000\000\000\000\000b\000\000\000\000\000\000\000u\000\000\000\000\000\000\000\314\000\000\000\000\000\000\000k\000\000\000\000\000\000\000l\000\000\000\000\000\000\000\207\000\000\000\000\000\000\0006\000\000\000\000\000\000\0000\000\000\000\000\000\000\000Q\000\000\000\000\000\000\000z\000\000\000\000\000\000\000\177\000\000\000\000\000\000\000\\\000\000\000\000\000\000\000q\000\000\000\000\000\000\000v\000\000\000\000\000\000\000a\000\000\000\000\000\000\000t\000\000\000\000\000\000\000{\000\000\000\000\000\000\000=\000\000\000\000\000\000\000h\000\000\000\000\000\000\000\203\000\000\000\000\000\000\000\201\000\000\000\000\000\000\000q\000\000\000\000\000\000\000U\000\000\000\000\000\000\000\326\000\000\000\000\000\000\000_\000\000\000\000\000\000\000^\000\000\000\000\000\000\000\\\000\000\000\000\000\000\000U\000\000\000\000\000\000\000^\000\000\000\000\000\000\0007\000\000\000\000\000\000\000\245\000\000\000\000\000\000\000b\000\000\000\000\000\000\000{\000\000\000\000\000\000\000\206\000\000\000\000\000\000\000w\000\000\000\000\000\000\000^\000\000\000\000\000\000\000W\000\000\000\000\000\000\000\215\000\000\000\000\000\000\000Z\000\000\000\000\000\000\000V\000\000\000\000\000\000\000l\000\000\000\000\000\000\000k\000\000\000\000\000\000\000j\000\000\000\000\000\000\000\212\000\000\000\000\000\000\000R\000\000\000\000\000\000\000G\000\000\000\000\000\000\000^\000\000\000\000\000\000\000{\000\000\000\000\000\000\000\212\000\000\000\000\000\000\000n\000\000\000\000\000\000\000\203\000\000\000\000\000\000\000\254\000\000\000\000\000\000\000w\000\000\000\000\000\000\000`\000\000\000\000\000\000\000l\000\000\000\000\000\000\000z\000\000\000\000\000\000\000_\000\000\000\000\000\000\000|\000\000\000\000\000\000\000X\000\000\000\000\000\000\000H\000\000\000\000\000\000\000\200\000\000\000\000\000\000\000\\\000\000\000\000\000\000\000F\000\000\000\000\000\000\000w\000\000\000\000\000\000\000x\000\000\000\000\000\000\000D\000\000\000\000\000\000\000t\000\000\000\000\000\000\000S\000\000\000\000\000\000\000w\000\000\000\000\000\000\000m\000\000\000\000\000\000\000c\000\000\000\000\000\000\000t\000\000\000\000\000\000\000Q\000\000\000\000\000\000\000u\000\000\000\000\000\000\000D\000\000\000\000\000\000\000C\000\000\000\000\000\000\000\200\000\000\000\000\000\000\000c\000\000\000\000\000\000\000>\000\000\000\000\000\000\000\211\000\000\000\000\000\000\000Q\000\000\000\000\000\000\000\235\000\000\000\000\000\000\000c\000\000\000\000\000\000\000>\000\000\000\000\000\000\000\242\000\000\000\000\000\000\000o\000\000\000\000\000\000\000h\000\000\000\000\000\000\000\230\000\000\000\000\000\000\000B\000\000\000\000\000\000\000w\000\000\000\000\000\000\000\207\000\000\000\000\000\000\000_\000\000\000\000\000\000\000W\000\000\000\000\000\000\000G\000\000\000\000\000\000\000Z\000\000\000\000\000\000\000.\000\000\000\000\000\000\000g\000\000\000\000\000\000\000z\000\000\000\000\000\000\000h\000\000\000\000\000\000\000w\000\000\000\000\000\000\000D\000\000\000\000\000\000\000\206\000\000\000\000\000\000\000d\000\000\000\000\000\000\000\236\000\000\000\000\000\000\000h\000\000\000\000\000\000\000\271\000\000\000\000\000\000\000|\000\000\000\000\000\000\000[\000\000\000\000\000\000\000r\000\000\000\000\000\000\000m\000\000\000\000\000\000\000y\000\000\000\000\000\000\000p\000\000\000\000\000\000\000A\000\000\000\000\000\000\000`\000\000\000\000\000\000\000s\000\000\000\000\000\000\000z\000\000\000\000\000\000\000\221\000\000\000\000\000\000\000\215\000\000\000\000\000\000\000x\000\000\000\000\000\000\000\257\000\000\000\000\000\000\000j\000\000\000\000\000\000\000H\000\000\000\000\000\000\000\260\000\000\000\000\000\000\000e\000\000\000\000\000\000\000\223\000\000\000\000\000\000\000\201\000\000\000\000\000\000\000V\000\000\000\000\000\000\000\201\000\000\000\000\000\000\000d\000\000\000\000\000\000\000?\000\000\000\000\000\000\000\205\000\000\000\000\000\000\000\201\000\000\000\000\000\000\000\224\000\000\000\000\000\000\000u\000\000\000\000\000\000\000x\000\000\000\000\000\000\000j\000\000\000\000\000\000\000A\000\000\000\000\000\000\000w\000\000\000\000\000\000\000a\000\000\000\000\000\000\000Z\000\000\000\000\000\000\000f\000\000\000\000\000\000\000U\000\000\000\000\000\000\000\201\000\000\000\000\000\000\000g\000\000\000\000\000\000\000\204\000\000\000\000\000\000\000\210\000\000\000\000\000\000\000\201\000\000\000\000\000\000\000J\000\000\000\000\000\000\000T\000\000\000\000\000\000\000a\000\000\000\000\000\000\000\234\000\000\000\000\000\000\000B\000\000\000\000\000\000\000x\000\000\000\000\000\000\000H\000\000\000\000\000\000\000\205\000\000\000\000\000\000\000\261\000\000\000\000\000\000\000o\000\000\000\000\000\000\000\247\000\000\000\000\000\000\000\202\000\000\000\000\000\000\0004\000\000\000\000\000\000\000u\000\000\000\000\000\000\000\243\000\000\000\000\000\000\000\177\000\000\000\000\000\000\000m\000\000\000\000\000\000\000\250\000\000\000\000\000\000\000i\000\000\000\000\000\000\000h\000\000\000\000\000\000\000r\000\000\000\000\000\000\000\210\000\000\000\000\000\000\000B\000\000\000\000\000\000\000p\000\000\000\000\000\000\000@\000\000\000\000\000\000\000m\000\000\000\000\000\000\000u\000\000\000\000\000\000\000y\000\000\000\000\000\000\000z\000\000\000\000\000\000\000n\000\000\000\000\000\000\000b\000\000\000\000\000\000\000W\000\000\000\000\000\000\000\207\000\000\000\000\000\000\000r\000\000\000\000\000\000\000\\\000\000\000\000\000\000\000e\000\000\000\000\000\000\000\202\000\000\000\000\000\000\000t\000\000\000\000\000\000\000a\000\000\000\000\000\000\000\271\000\000\000\000\000\000\000Y\000\000\000\000\000\000\000g\000\000\000\000\000\000\000\212\000\000\000\000\000\000\000\205\000\000\000\000\000\000\000X\000\000\000\000\000\000\000q\000\000\000\000\000\000\000|\000\000\000\000\000\000\000h\000\000\000\000\000\000\000V\000\000\000\000\000\000\000@\000\000\000\000\000\000\000L\000\000\000\000\000\000\000Y\000\000\000\000\000\000\000\213\000\000\000\000\000\000\000\224\000\000\000\000\000\000\000f\000\000\000\000\000\000\000e\000\000\000\000\000\000\000o\000\000\000\000\000\000\000N\000\000\000\000\000\000\0005\000\000\000\000\000\000\000;\000\000\000\000\000\000\000\\\000\000\000\000\000\000\000{\000\000\000\000\000\000\000^\000\000\000\000\000\000\000\201\000\000\000\000\000\000\000\207\000\000\000\000\000\000\000s\000\000\000\000\000\000\000=\000\000\000\000\000\000\000b\000\000\000\000\000\000\000Q\000\000\000\000\000\000\000K\000\000\000\000\000\000\000w\000\000\000\000\000\000\000Y\000\000\000\000\000\000\000`\000\000\000\000\000\000\000w\000\000\000\000\000\000\000h\000\000\000\000\000\000\000g\000\000\000\000\000\000\000Z\000\000\000\000\000\000\000k\000\000\000\000\000\000\000u\000\000\000\000\000\000\000l\000\000\000\000\000\000\000M\000\000\000\000\000\000\000h\000\000\000\000\000\000\000\247\000\000\000\000\000\000\000-\000\000\000\000\000\000\000\215\000\000\000\000\000\000\000x\000\000\000\000\000\000\000R\000\000\000\000\000\000\000~\000\000\000\000\000\000\000h\000\000\000\000\000\000\000r\000\000\000\000\000\000\000X\000\000\000\000\000\000\000b\000\000\000\000\000\000\000\204\000\000\000\000\000\000\000\277\000\000\000\000\000\000\000V\000\000\000\000\000\000\0001\000\000\000\000\000\000\000f\000\000\000\000\000\000\000z\000\000\000\000\000\000\000O\000\000\000\000\000\000\000J\000\000\000\000\000\000\000\304\000\000\000\000\000\000\000\177\000\000\000\000\000\000\000]\000\000\000\000\000\000\000L\000\000\000\000\000\000\000~\000\000\000\000\000\000\000m\000\000\000\000\000\000\000n\000\000\000\000\000\000\000o\000\000\000\000\000\000\000\200\000\000\000\000\000\000\000V\000\000\000\000\000\000\000K\000\000\000\000\000\000\000z\000\000\000\000\000\000\000J\000\000\000\000\000\000\000\206\000\000\000\000\000\000\000E\000\000\000\000\000\000\000S\000\000\000\000\000\000\000v\000\000\000\000\000\000\000b\000\000\000\000\000\000\000-\000\000\000\000\000\000\000[\000\000\000\000\000\000\000V\000\000\000\000\000\000\000Q\000\000\000\000\000\000\000_\000\000\000\000\000\000\000e\000\000\000\000\000\000\000P\000\000\000\000\000\000\000n\000\000\000\000\000\000\000^\000\000\000\000\000\000\000g\000\000\000\000\000\000\000z\000\000\000\000\000\000\000\204\000\000\000\000\000\000\000p\000\000\000\000\000\000\000i\000\000\000\000\000\000\000g\000\000\000\000\000\000\000n\000\000\000\000\000\000\000Z\000\000\000\000\000\000\000m\000\000\000\000\000\000\000~\000\000\000\000\000\000\000U\000\000\000\000\000\000\000z\000\000\000\000\000\000\000\247\000\000\000\000\000\000\000{\000\000\000\000\000\000\000A\000\000\000\000\000\000\000;\000\000\000\000\000\000\000p\000\000\000\000\000\000\000c\000\000\000\000\000\000\000r\000\000\000\000\000\000\000g\000\000\000\000\000\000\000d\000\000\000\000\000\000\000z\000\000\000\000\000\000\000~\000\000\000\000\000\000\000d\000\000\000\000\000\000\000\037\000\000\000\000\000\000\000S\000\000\000\000\000\000\000T\000\000\000\000\000\000\000Z\000\000\000\000\000\000\000t\000\000\000\000\000\000\000Z\000\000\000\000\000\000\000\225\000\000\000\000\000\000\000\226\000\000\000\000\000\000\000\241\000\000\000\000\000\000\000]\000\000\000\000\000\000\000e\000\000\000\000\000\000\000\223\000\000\000\000\000\000\000\200\000\000\000\000\000\000\000\205\000\000\000\000\000\000\000V\000\000\000\000\000\000\000c\000\000\000\000\000\000\000}\000\000\000\000\000\000\000[\000\000\000\000\000\000\000\300\000\000\000\000\000\000\000v\000\000\000\000\000\000\000\202\000\000\000\000\000\000\000O\000\000\000\000\000\000\000s\000\000\000\000\000\000\000\200\000\000\000\000\000\000\000g\000\000\000\000\000\000\000\213\000\000\000\000\000\000\000{\000\000\000\000\000\000\000{\000\000\000\000\000\000\000V\000\000\000\000\000\000\000U\000\000\000\000\000\000\000\220\000\000\000\000\000\000\000<\000\000\000\000\000\000\000\201\000\000\000\000\000\000\000q\000\000\000\000\000\000\000o\000\000\000\000\000\000\000w\000\000\000\000\000\000\000u\000\000\000\000\000\000\000X\000\000\000\000\000\000\000o\000\000\000\000\000\000\000a\000\000\000\000\000\000\000n\000\000\000\000\000\000\000k\000\000\000\000\000\000\000^\000\000\000\000\000\000\000d\000\000\000\000\000\000\000N\000\000\000\000\000\000\000\177\000\000\000\000\000\000\000\224\000\000\000\000\000\000\000H\000\000\000\000\000\000\000_\000\000\000\000\000\000\000\210\000\000\000\000\000\000\000h\000\000\000\000\000\000\0004\000\000\000\000\000\000\000\246\000\000\000\000\000\000\000F\000\000\000\000\000\000\000[\000\000\000\000\000\000\000t\000\000\000\000\000\000\000l\000\000\000\000\000\000\000X\000\000\000\000\000\000\000W\000\000\000\000\000\000\000`\000\000\000\000\000\000\000d\000\000\000\000\000\000\000<\000\000\000\000\000\000\0008\000\000\000\000\000\000\000x\000\000\000\000\000\000\000R\000\000\000\000\000\000\000u\000\000\000\000\000\000\000\211\000\000\000\000\000\000\000M\000\000\000\000\000\000\000\222\000\000\000\000\000\000\000q\000\000\000\000\000\000\000Y\000\000\000\000\000\000\000\217\000\000\000\000\000\000\000a\000\000\000\000\000\000\000\204\000\000\000\000\000\000\000q\000\000\000\000\000\000\000W\000\000\000\000\000\000\000[\000\000\000\000\000\000\000t\000\000\000\000\000\000\000~\000\000\000\000\000\000\000=\000\000\000\000\000\000\000s\000\000\000\000\000\000\000V\000\000\000\000\000\000\000\215\000\000\000\000\000\000\000s\000\000\000\000\000\000\000D\000\000\000\000\000\000\000|\000\000\000\000\000\000\000o\000\000\000\000\000\000\000_\000\000\000\000\000\000\000f\000\000\000\000\000\000\000\207\000\000\000\000\000\000\000\201\000\000\000\000\000\000\000h\000\000\000\000\000\000\000C\000\000\000\000\000\000\000g\000\000\000\000\000\000\000\201\000\000\000\000\000\000\000E\000\000\000\000\000\000\000\206\000\000\000\000\000\000\000N\000\000\000\000\000\000\000z\000\000\000\000\000\000\000\244\000\000\000\000\000\000\000\205\000\000\000\000\000\000\000:\000\000\000\000\000\000\000\234\000\000\000\000\000\000\000k\000\000\000\000\000\000\000v\000\000\000\000\000\000\000\202\000\000\000\000\000\000\000)\000\000\000\000\000\000\000h\000\000\000\000\000\000\000a\000\000\000\000\000\000\000Q\000\000\000\000\000\000\000`\000\000\000\000\000\000\000\202\000\000\000\000\000\000\000X\000\000\000\000\000\000\000q\000\000\000\000\000\000\000}\000\000\000\000\000\000\000i\000\000\000\000\000\000\000M\000\000\000\000\000\000\000a\000\000\000\000\000\000\000}\000\000\000\000\000\000\000V\000\000\000\000\000\000\000V\000\000\000\000\000\000\000=\000\000\000\000\000\000\000c\000\000\000\000\000\000\000/\000\000\000\000\000\000\000\202\000\000\000\000\000\000\0003\000\000\000\000\000\000\000\233\000\000\000\000\000\000\000e\000\000\000\000\000\000\000q\000\000\000\000\000\000\000d\000\000\000\000\000\000\000J\000\000\000\000\000\000\000V\000\000\000\000\000\000\000[\000\000\000\000\000\000\000p\000\000\000\000\000\000\000\\\000\000\000\000\000\000\000O\000\000\000\000\000\000\000E\000\000\000\000\000\000\000\201\000\000\000\000\000\000\000_\000\000\000\000\000\000\000h\000\000\000\000\000\000\000u\000\000\000\000\000\000\000_\000\000\000\000\000\000\000>\000\000\000\000\000\000\000o\000\000\000\000\000\000\000\210\000\000\000\000\000\000\000`\000\000\000\000\000\000\000\227\000\000\000\000\000\000\000u\000\000\000\000\000\000\000F\000\000\000\000\000\000\000P\000\000\000\000\000\000\000\206\000\000\000\000\000\000\000\202\000\000\000\000\000\000\000^\000\000\000\000\000\000\000^\000\000\000\000\000\000\000`\000\000\000\000\000\000\000\242\000\000\000\000\000\000\000t\000\000\000\000\000\000\000T\000\000\000\000\000\000\000<\000\000\000\000\000\000\000C\000\000\000\000\000\000\000\206\000\000\000\000\000\000\000b\000\000\000\000\000\000\000`\000\000\000\000\000\000\000|\000\000\000\000\000\000\000a\000\000\000\000\000\000\000\212\000\000\000\000\000\000\000\226\000\000\000\000\000\000\000p\000\000\000\000\000\000\000B\000\000\000\000\000\000\000\224\000\000\000\000\000\000\0001\000\000\000\000\000\000\000;\000\000\000\000\000\000\000\207\000\000\000\000\000\000\000V\000\000\000\000\000\000\000\215\000\000\000\000\000\000\000\250\000\000\000\000\000\000\000A\000\000\000\000\000\000\000A\000\000\000\000\000\000\0007\000\000\000\000\000\000\000L\000\000\000\000\000\000\000x\000\000\000\000\000\000\000W\000\000\000\000\000\000\000]\000\000\000\000\000\000\000T\000\000\000\000\000\000\000e\000\000\000\000\000\000\000a\000\000\000\000\000\000\000|\000\000\000\000\000\000\0002\000\000\000\000\000\000\000\\\000\000\000\000\000\000\000|\000\000\000\000\000\000\000|\000\000\000\000\000\000\000[\000\000\000\000\000\000\000P\000\000\000\000\000\000\000^\000\000\000\000\000\000\000W\000\000\000\000\000\000\000P\000\000\000\000\000\000\000u\000\000\000\000\000\000\000_\000\000\000\000\000\000\000z\000\000\000\000\000\000\000V\000\000\000\000\000\000\000Z\000\000\000\000\000\000\000<\000\000\000\000\000\000\000\252\000\000\000\000\000\000\000[\000\000\000\000\000\000\000g\000\000\000\000\000\000\000S\000\000\000\000\000\000\000}\000\000\000\000\000\000\000D\000\000\000\000\000\000\0007\000\000\000\000\000\000\000\211\000\000\000\000\000\000\000L\000\000\000\000\000\000\000e\000\000\000\000\000\000\000l\000\000\000\000\000\000\000n\000\000\000\000\000\000\000S\000\000\000\000\000\000\000B\000\000\000\000\000\000\000d\000\000\000\000\000\000\000G\000\000\000\000\000\000\000Q\000\000\000\000\000\000\000n\000\000\000\000\000\000\000l\000\000\000\000\000\000\000`\000\000\000\000\000\000\000\241\000\000\000\000\000\000\000U\000\000\000\000\000\000\000x\000\000\000\000\000\000\000t\000\000\000\000\000\000\000i\000\000\000\000\000\000\000s\000\000\000\000\000\000\000k\000\000\000\000\000\000\000O\000\000\000\000\000\000\000l\000\000\000\000\000\000\000t\000\000\000\000\000\000\000]\000\000\000\000\000\000\000X\000\000\000\000\000\000\000\204\000\000\000\000\000\000\000~\000\000\000\000\000\000\000\233\000\000\000\000\000\000\000s\000\000\000\000\000\000\000S\000\000\000\000\000\000\000]\000\000\000\000\000\000\000z\000\000\000\000\000\000\000P\000\000\000\000\000\000\000M\000\000\000\000\000\000\000_\000\000\000\000\000\000\000\216\000\000\000\000\000\000\000C\000\000\000\000\000\000\000v\000\000\000\000\000\000\000q\000\000\000\000\000\000\000\231\000\000\000\000\000\000\000k\000\000\000\000\000\000\000\'\000\000\000\000\000\000\000q\000\000\000\000\000\000\000X\000\000\000\000\000\000\000q\000\000\000\000\000\000\000p\000\000\000\000\000\000\000W\000\000\000\000\000\000\000b\000\000\000\000\000\000\000Y\000\000\000\000\000\000\000{\000\000\000\000\000\000\000\231\000\000\000\000\000\000\000/\000\000\000\000\000\000\000L\000\000\000\000\000\000\000B\000\000\000\000\000\000\0002\000\000\000\000\000\000\0009\000\000\000\000\000\000\000X\000\000\000\000\000\000\000l\000\000\000\000\000\000\000.\000\000\000\000\000\000\000M\000\000\000\000\000\000\000m\000\000\000\000\000\000\000\206\000\000\000\000\000\000\000Z\000\000\000\000\000\000\000[\000\000\000\000\000\000\000M\000\000\000\000\000\000\000S\000\000\000\000\000\000\000y\000\000\000\000\000\000\000e\000\000\000\000\000\000\000\205\000\000\000\000\000\000\000t\000\000\000\000\000\000\000P\000\000\000\000\000\000\000A\000\000\000\000\000\000\000\231\000\000\000\000\000\000\000X\000\000\000\000\000\000\000\273\000\000\000\000\000\000\000d\000\000\000\000\000\000\000:\000\000\000\000\000\000\000p\000\000\000\000\000\000\000e\000\000\000\000\000\000\000H\000\000\000\000\000\000\000\223\000\000\000\000\000\000\000c\000\000\000\000\000\000\000[\000\000\000\000\000\000\000|\000\000\000\000\000\000\000Z\000\000\000\000\000\000\000U\000\000\000\000\000\000\000L\000\000\000\000\000\000\000j\000\000\000\000\000\000\000\277\000\000\000\000\000\000\000R\000\000\000\000\000\000\000v\000\000\000\000\000\000\000p\000\000\000\000\000\000\000\204\000\000\000\000\000\000\000g\000\000\000\000\000\000\000\222\000\000\000\000\000\000\000\226\000\000\000\000\000\000\000\\\000\000\000\000\000\000\000[\000\000\000\000\000\000\000\202\000\000\000\000\000\000\000\215\000\000\000\000\000\000\000l\000\000\000\000\000\000\000U\000\000\000\000\000\000\000P\000\000\000\000\000\000\000\267\000\000\000\000\000\000\000\230\000\000\000\000\000\000\000m\000\000\000\000\000\000\0001\000\000\000\000\000\000\000G\000\000\000\000\000\000\000\200\000\000\000\000\000\000\000[\000\000\000\000\000\000\0005\000\000\000\000\000\000\000R\000\000\000\000\000\000\000e\000\000\000\000\000\000\000\231\000\000\000\000\000\000\000R\000\000\000\000\000\000\000_\000\000\000\000\000\000\000W\000\000\000\000\000\000\0007\000\000\000\000\000\000\000W\000\000\000\000\000\000\000S\000\000\000\000\000\000\000<\000\000\000\000\000\000\000d\000\000\000\000\000\000\000f\000\000\000\000\000\000\000R\000\000\000\000\000\000\000o\000\000\000\000\000\000\000_\000\000\000\000\000\000\000\200\000\000\000\000\000\000\000I\000\000\000\000\000\000\000\201\000\000\000\000\000\000\000m\000\000\000\000\000\000\000\207\000\000\000\000\000\000\000B\000\000\000\000\000\000\000\\\000\000\000\000\000\000\000\201\000\000\000\000\000\000\0008\000\000\000\000\000\000\000O\000\000\000\000\000\000\000i\000\000\000\000\000\000\000r\000\000\000\000\000\000\000Z\000\000\000\000\000\000\000G\000\000\000\000\000\000\000\207\000\000\000\000\000\000\000\244\000\000\000\000\000\000\000\200\000\000\000\000\000\000\000\177\000\000\000\000\000\000\000\201\000\000\000\000\000\000\000}\000\000\000\000\000\000\000C\000\000\000\000\000\000\000P\000\000\000\000\000\000\000Q\000\000\000\000\000\000\000{\000\000\000\000\000\000\000K\000\000\000\000\000\000\000L\000\000\000\000\000\000\000s\000\000\000\000\000\000\000K\000\000\000\000\000\000\000,\000\000\000\000\000\000\000@\000\000\000\000\000\000\000^\000\000\000\000\000\000\000\034\000\000\000\000\000\000\000[\000\000\000\000\000\000\000\262\000\000\000\000\000\000\000\220\000\000\000\000\000\000\000Y\000\000\000\000\000\000\000z\000\000\000\000\000\000\000e\000\000\000\000\000\000\000\203\000\000\000\000\000\000\000\203\000\000\000\000\000\000\000q\000\000\000\000\000\000\000D\000\000\000\000\000\000\000b\000\000\000\000\000\000\000y\000\000\000\000\000\000\0005\000\000\000\000\000\000\000A\000\000\000\000\000\000\000n\000\000\000\000\000\000\000Z\000\000\000\000\000\000\000{\000\000\000\000\000\000\000\202\000\000\000\000\000\000\000M\000\000\000\000\000\000\000Y\000\000\000\000\000\000\000g\000\000\000\000\000\000\000~\000\000\000\000\000\000\000s\000\000\000\000\000\000\000y\000\000\000\000\000\000\0000\000\000\000\000\000\000\000}\000\000\000\000\000\000\000>\000\000\000\000\000\000\000i\000\000\000\000\000\000\000k\000\000\000\000\000\000\000X\000\000\000\000\000\000\000@\000\000\000\000\000\000\000\200\000\000\000\000\000\000\000P\000\000\000\000\000\000\000S\000\000\000\000\000\000\000E\000\000\000\000\000\000\000`\000\000\000\000\000\000\000\200\000\000\000\000\000\000\000\301\000\000\000\000\000\000\000^\000\000\000\000\000\000\000g\000\000\000\000\000\000\000z\000\000\000\000\000\000\000q\000\000\000\000\000\000\000\242\000\000\000\000\000\000\000[\000\000\000\000\000\000\000y\000\000\000\000\000\000\000\254\000\000\000\000\000\000\000G\000\000\000\000\000\000\000:\000\000\000\000\000\000\000w\000\000\000\000\000\000\000l\000\000\000\000\000\000\000X\000\000\000\000\000\000\000T\000\000\000\000\000\000\000a\000\000\000\000\000\000\000Z\000\000\000\000\000\000\000v\000\000\000\000\000\000\000d\000\000\000\000\000\000\000`\000\000\000\000\000\000\000\233\000\000\000\000\000\000\000t\000\000\000\000\000\000\000\211\000\000\000\000\000\000\000\225\000\000\000\000\000\000\000V\000\000\000\000\000\000\000a\000\000\000\000\000\000\000\215\000\000\000\000\000\000\000}\000\000\000\000\000\000\000K\000\000\000\000\000\000\000k\000\000\000\000\000\000\000\220\000\000\000\000\000\000\000`\000\000\000\000\000\000\000f\000\000\000\000\000\000\000\224\000\000\000\000\000\000\000?\000\000\000\000\000\000\000a\000\000\000\000\000\000\000^\000\000\000\000\000\000\000T\000\000\000\000\000\000\000i\000\000\000\000\000\000\000\\\000\000\000\000\000\000\000\236\000\000\000\000\000\000\000t\000\000\000\000\000\000\000\214\000\000\000\000\000\000\000r\000\000\000\000\000\000\000C\000\000\000\000\000\000\000\262\000\000\000\000\000\000\000T\000\000\000\000\000\000\000x\000\000\000\000\000\000\000_\000\000\000\000\000\000\000A\000\000\000\000\000\000\000q\000\000\000\000\000\000\000j\000\000\000\000\000\000\000_\000\000\000\000\000\000\000J\000\000\000\000\000\000\000|\000\000\000\000\000\000\000\251\000\000\000\000\000\000\000w\000\000\000\000\000\000\000e\000\000\000\000\000\000\000g\000\000\000\000\000\000\000A\000\000\000\000\000\000\000\221\000\000\000\000\000\000\000L\000\000\000\000\000\000\000E\000\000\000\000\000\000\000\233\000\000\000\000\000\000\000x\000\000\000\000\000\000\000r\000\000\000\000\000\000\000x\000\000\000\000\000\000\000l\000\000\000\000\000\000\000B\000\000\000\000\000\000\000I\000\000\000\000\000\000\000y\000\000\000\000\000\000\000\312\000\000\000\000\000\000\000}\000\000\000\000\000\000\000:\000\000\000\000\000\000\000C\000\000\000\000\000\000\000t\000\000\000\000\000\000\000<\000\000\000\000\000\000\000Y\000\000\000\000\000\000\000^\000\000\000\000\000\000\000g\000\000\000\000\000\000\0009\000\000\000\000\000\000\000e\000\000\000\000\000\000\000d\000\000\000\000\000\000\000n\000\000\000\000\000\000\000U\000\000\000\000\000\000\000\222\000\000\000\000\000\000\000]\000\000\000\000\000\000\000e\000\000\000\000\000\000\000d\000\000\000\000\000\000\000T\000\000\000\000\000\000\000l\000\000\000\000\000\000\000l\000\000\000\000\000\000\000\222\000\000\000\000\000\000\000W\000\000\000\000\000\000\000\235\000\000\000\000\000\000\000\214\000\000\000\000\000\000\000\210\000\000\000\000\000\000\000k\000\000\000\000\000\000\000d\000\000\000\000\000\000\000J\000\000\000\000\000\000\000u\000\000\000\000\000\000\000w\000\000\000\000\000\000\000e\000\000\000\000\000\000\000{\000\000\000\000\000\000\000N\000\000\000\000\000\000\000j\000\000\000\000\000\000\000\214\000\000\000\000\000\000\000F\000\000\000\000\000\000\000\206\000\000\000\000\000\000\000w\000\000\000\000\000\000\000S\000\000\000\000\000\000\000Z\000\000\000\000\000\000\000{\000\000\000\000\000\000\000|\000\000\000\000\000\000\000\232\000\000\000\000\000\000\000`\000\000\000\000\000\000\000t\000\000\000\000\000\000\000\262\000\000\000\000\000\000\000g\000\000\000\000\000\000\000\177\000\000\000\000\000\000\000b\000\000\000\000\000\000\000\232\000\000\000\000\000\000\000X\000\000\000\000\000\000\000d\000\000\000\000\000\000\000E\000\000\000\000\000\000\000?\000\000\000\000\000\000\000\210\000\000\000\000\000\000\000\246\000\000\000\000\000\000\000\265\000\000\000\000\000\000\000C\000\000\000\000\000\000\0001\000\000\000\000\000\000\000m\000\000\000\000\000\000\000\232\000\000\000\000\000\000\000\177\000\000\000\000\000\000\000\200\000\000\000\000\000\000\000]\000\000\000\000\000\000\000v\000\000\000\000\000\000\000W\000\000\000\000\000\000\000p\000\000\000\000\000\000\000k\000\000\000\000\000\000\000/\000\000\000\000\000\000\000:\000\000\000\000\000\000\000N\000\000\000\000\000\000\000g\000\000\000\000\000\000\000(\000\000\000\000\000\000\000>\000\000\000\000\000\000\000p\000\000\000\000\000\000\000m\000\000\000\000\000\000\000\200\000\000\000\000\000\000\000X\000\000\000\000\000\000\000g\000\000\000\000\000\000\000\227\000\000\000\000\000\000\000Y\000\000\000\000\000\000\000J\000\000\000\000\000\000\000/\000\000\000\000\000\000\000j\000\000\000\000\000\000\000\200\000\000\000\000\000\000\000S\000\000\000\000\000\000\000o\000\000\000\000\000\000\000U\000\000\000\000\000\000\000D\000\000\000\000\000\000\000\216\000\000\000\000\000\000\000p\000\000\000\000\000\000\000@\000\000\000\000\000\000\000k\000\000\000\000\000\000\000c\000\000\000\000\000\000\000\212\000\000\000\000\000\000\000\177\000\000\000\000\000\000\000A\000\000\000\000\000\000\000o\000\000\000\000\000\000\000\221\000\000\000\000\000\000\000\206\000\000\000\000\000\000\000[\000\000\000\000\000\000\000:\000\000\000\000\000\000\000]\000\000\000\000\000\000\000s\000\000\000\000\000\000\000c\000\000\000\000\000\000\000f\000\000\000\000\000\000\000\234\000\000\000\000\000\000\0009\000\000\000\000\000\000\000~\000\000\000\000\000\000\000\210\000\000\000\000\000\000\000G\000\000\000\000\000\000\000o\000\000\000\000\000\000\000i\000\000\000\000\000\000\000^\000\000\000\000\000\000\000p\000\000\000\000\000\000\000\226\000\000\000\000\000\000\000]\000\000\000\000\000\000\000O\000\000\000\000\000\000\000S\000\000\000\000\000\000\000R\000\000\000\000\000\000\000T\000\000\000\000\000\000\000J\000\000\000\000\000\000\000e\000\000\000\000\000\000\000M\000\000\000\000\000\000\000\205\000\000\000\000\000\000\000x\000\000\000\000\000\000\000e\000\000\000\000\000\000\000h\000\000\000\000\000\000\000I\000\000\000\000\000\000\000_\000\000\000\000\000\000\000A\000\000\000\000\000\000\000\234\000\000\000\000\000\000\000\215\000\000\000\000\000\000\000\206\000\000\000\000\000\000\000^\000\000\000\000\000\000\000\177\000\000\000\000\000\000\000S\000\000\000\000\000\000\000q\000\000\000\000\000\000\000\210\000\000\000\000\000\000\000_\000\000\000\000\000\000\000\203\000\000\000\000\000\000\000\203\000\000\000\000\000\000\000\222\000\000\000\000\000\000\000y\000\000\000\000\000\000\000n\000\000\000\000\000\000\000N\000\000\000\000\000\000\000L\000\000\000\000\000\000\000=\000\000\000\000\000\000\000R\000\000\000\000\000\000\000s\000\000\000\000\000\000\000\207\000\000\000\000\000\000\000B\000\000\000\000\000\000\000\204\000\000\000\000\000\000\000\212\000\000\000\000\000\000\000z\000\000\000\000\000\000\000;\000\000\000\000\000\000\000\237\000\000\000\000\000\000\000\\\000\000\000\000\000\000\000B\000\000\000\000\000\000\000=\000\000\000\000\000\000\000f\000\000\000\000\000\000\000c\000\000\000\000\000\000\000K\000\000\000\000\000\000\000\206\000\000\000\000\000\000\000?\000\000\000\000\000\000\000\217\000\000\000\000\000\000\000\236\000\000\000\000\000\000\000U\000\000\000\000\000\000\000D\000\000\000\000\000\000\000\213\000\000\000\000\000\000\000a\000\000\000\000\000\000\000\220\000\000\000\000\000\000\000~\000\000\000\000\000\000\000x\000\000\000\000\000\000\000Q\000\000\000\000\000\000\000[\000\000\000\000\000\000\000<\000\000\000\000\000\000\000c\000\000\000\000\000\000\000x\000\000\000\000\000\000\000D\000\000\000\000\000\000\0001\000\000\000\000\000\000\000\213\000\000\000\000\000\000\000\200\000\000\000\000\000\000\000d\000\000\000\000\000\000\000\177\000\000\000\000\000\000\000N\000\000\000\000\000\000\000\230\000\000\000\000\000\000\000H\000\000\000\000\000\000\000s\000\000\000\000\000\000\000\223\000\000\000\000\000\000\000e\000\000\000\000\000\000\000W\000\000\000\000\000\000\000Y\000\000\000\000\000\000\000P\000\000\000\000\000\000\000p\000\000\000\000\000\000\000d\000\000\000\000\000\000\000Q\000\000\000\000\000\000\000P\000\000\000\000\000\000\000.\000\000\000\000\000\000\000e\000\000\000\000\000\000\000a\000\000\000\000\000\000\000z\000\000\000\000\000\000\000[\000\000\000\000\000\000\000}\000\000\000\000\000\000\000C\000\000\000\000\000\000\000/\000\000\000\000\000\000\000h\000\000\000\000\000\000\000_\000\000\000\000\000\000\000k\000\000\000\000\000\000\000\203\000\000\000\000\000\000\000\245\000\000\000\000\000\000\000C\000\000\000\000\000\000\000q\000\000\000\000\000\000\000\202\000\000\000\000\000\000\000\201\000\000\000\000\000\000\000P\000\000\000\000\000\000\000;\000\000\000\000\000\000\000{\000\000\000\000\000\000\000{\000\000\000\000\000\000\000U\000\000\000\000\000\000\000\205\000\000\000\000\000\000\000Z\000\000\000\000\000\000\000t\000\000\000\000\000\000\000g\000\000\000\000\000\000\000H\000\000\000\000\000\000\000r\000\000\000\000\000\000\000N\000\000\000\000\000\000\000\177\000\000\000\000\000\000\000m\000\000\000\000\000\000\000X\000\000\000\000\000\000\000\177\000\000\000\000\000\000\000\210\000\000\000\000\000\000\000L\000\000\000\000\000\000\000r\000\000\000\000\000\000\000\201\000\000\000\000\000\000\000\257\000\000\000\000\000\000\000P\000\000\000\000\000\000\0003\000\000\000\000\000\000\000h\000\000\000\000\000\000\000m\000\000\000\000\000\000\000b\000\000\000\000\000\000\000\227\000\000\000\000\000\000\000\313\000\000\000\000\000\000\000c\000\000\000\000\000\000\000\206\000\000\000\000\000\000\000M\000\000\000\000\000\000\000>\000\000\000\000\000\000\000W\000\000\000\000\000\000\000e\000\000\000\000\000\000\000K\000\000\000\000\000\000\000\201\000\000\000\000\000\000\000~\000\000\000\000\000\000\000Y\000\000\000\000\000\000\000d\000\000\000\000\000\000\000Y\000\000\000\000\000\000\000\221\000\000\000\000\000\000\000R\000\000\000\000\000\000\000n\000\000\000\000\000\000\000\214\000\000\000\000\000\000\000o\000\000\000\000\000\000\000E\000\000\000\000\000\000\000I\000\000\000\000\000\000\000q\000\000\000\000\000\000\000]\000\000\000\000\000\000\000G\000\000\000\000\000\000\000v\000\000\000\000\000\000\000G\000\000\000\000\000\000\000x\000\000\000\000\000\000\000\240\000\000\000\000\000\000\000\211\000\000\000\000\000\000\000i\000\000\000\000\000\000\000c\000\000\000\000\000\000\000?\000\000\000\000\000\000\000A\000\000\000\000\000\000\000r\000\000\000\000\000\000\000L\000\000\000\000\000\000\000y\000\000\000\000\000\000\000`\000\000\000\000\000\000\000g\000\000\000\000\000\000\000{\000\000\000\000\000\000\000Z\000\000\000\000\000\000\000p\000\000\000\000\000\000\000\253\000\000\000\000\000\000\000>\000\000\000\000\000\000\000j\000\000\000\000\000\000\000q\000\000\000\000\000\000\000r\000\000\000\000\000\000\000i\000\000\000\000\000\000\000t\000\000\000\000\000\000\000\200\000\000\000\000\000\000\000+\000\000\000\000\000\000\000=\000\000\000\000\000\000\000g\000\000\000\000\000\000\0006\000\000\000\000\000\000\000\241\000\000\000\000\000\000\000\207\000\000\000\000\000\000\0009\000\000\000\000\000\000\000\237\000\000\000\000\000\000\000e\000\000\000\000\000\000\000\231\000\000\000\000\000\000\000O\000\000\000\000\000\000\000_\000\000\000\000\000\000\000n\000\000\000\000\000\000\000{\000\000\000\000\000\000\000\205\000\000\000\000\000\000\000X\000\000\000\000\000\000\000n\000\000\000\000\000\000\000X\000\000\000\000\000\000\000A\000\000\000\000\000\000\000e\000\000\000\000\000\000\000\216\000\000\000\000\000\000\000\222\000\000\000\000\000\000\000\223\000\000\000\000\000\000\000\221\000\000\000\000\000\000\000P\000\000\000\000\000\000\000Z\000\000\000\000\000\000\000o\000\000\000\000\000\000\000I\000\000\000\000\000\000\000\211\000\000\000\000\000\000\000U\000\000\000\000\000\000\000\210\000\000\000\000\000\000\000p\000\000\000\000\000\000\000l\000\000\000\000\000\000\000J\000\000\000\000\000\000\000t\000\000\000\000\000\000\000\214\000\000\000\000\000\000\000J\000\000\000\000\000\000\000R\000\000\000\000\000\000\000I\000\000\000\000\000\000\000{\000\000\000\000\000\000\000\210\000\000\000\000\000\000\000f\000\000\000\000\000\000\000^\000\000\000\000\000\000\000}\000\000\000\000\000\000\000J\000\000\000\000\000\000\000\207\000\000\000\000\000\000\000~\000\000\000\000\000\000\000^\000\000\000\000\000\000\000j\000\000\000\000\000\000\000W\000\000\000\000\000\000\000e\000\000\000\000\000\000\000r\000\000\000\000\000\000\000\313\000\000\000\000\000\000\000n\000\000\000\000\000\000\000R\000\000\000\000\000\000\000\241\000\000\000\000\000\000\000l\000\000\000\000\000\000\000u\000\000\000\000\000\000\000[\000\000\000\000\000\000\000\224\000\000\000\000\000\000\000`\000\000\000\000\000\000\000L\000\000\000\000\000\000\000o\000\000\000\000\000\000\000p\000\000\000\000\000\000\000\241\000\000\000\000\000\000\000U\000\000\000\000\000\000\000b\000\000\000\000\000\000\000\200\000\000\000\000\000\000\0009\000\000\000\000\000\000\000\245\000\000\000\000\000\000\000V\000\000\000\000\000\000\000l\000\000\000\000\000\000\000\241\000\000\000\000\000\000\000>\000\000\000\000\000\000\000R\000\000\000\000\000\000\000\236\000\000\000\000\000\000\000c\000\000\000\000\000\000\000?\000\000\000\000\000\000\000r\000\000\000\000\000\000\000}\000\000\000\000\000\000\000\225\000\000\000\000\000\000\000`\000\000\000\000\000\000\000\206\000\000\000\000\000\000\000m\000\000\000\000\000\000\000>\000\000\000\000\000\000\000I\000\000\000\000\000\000\000\247\000\000\000\000\000\000\000s\000\000\000\000\000\000\000C\000\000\000\000\000\000\000Q\000\000\000\000\000\000\000\\\000\000\000\000\000\000\000f\000\000\000\000\000\000\000A\000\000\000\000\000\000\000C\000\000\000\000\000\000\000k\000\000\000\000\000\000\000\205\000\000\000\000\000\000\000u\000\000\000\000\000\000\000z\000\000\000\000\000\000\000L\000\000\000\000\000\000\000T\000\000\000\000\000\000\000L\000\000\000\000\000\000\000S\000\000\000\000\000\000\000\224\000\000\000\000\000\000\000@\000\000\000\000\000\000\000\205\000\000\000\000\000\000\000w\000\000\000\000\000\000\000\210\000\000\000\000\000\000\000\303\000\000\000\000\000\000\000;\000\000\000\000\000\000\000p\000\000\000\000\000\000\000Q\000\000\000\000\000\000\000T\000\000\000\000\000\000\000a\000\000\000\000\000\000\000\211\000\000\000\000\000\000\000w\000\000\000\000\000\000\000_\000\000\000\000\000\000\000c\000\000\000\000\000\000\000{\000\000\000\000\000\000\000<\000\000\000\000\000\000\0002\000\000\000\000\000\000\000\206\000\000\000\000\000\000\000\216\000\000\000\000\000\000\000e\000\000\000\000\000\000\000i\000\000\000\000\000\000\000]\000\000\000\000\000\000\000t\000\000\000\000\000\000\0004\000\000\000\000\000\000\000p\000\000\000\000\000\000\000\243\000\000\000\000\000\000\000S\000\000\000\000\000\000\000L\000\000\000\000\000\000\000Q\000\000\000\000\000\000\000{\000\000\000\000\000\000\000k\000\000\000\000\000\000\000R\000\000\000\000\000\000\000\200\000\000\000\000\000\000\000o\000\000\000\000\000\000\000T\000\000\000\000\000\000\000W\000\000\000\000\000\000\000j\000\000\000\000\000\000\000j\000\000\000\000\000\000\000U\000\000\000\000\000\000\000l\000\000\000\000\000\000\000f\000\000\000\000\000\000\0004\000\000\000\000\000\000\000L\000\000\000\000\000\000\000\325\000\000\000\000\000\000\000^\000\000\000\000\000\000\000}\000\000\000\000\000\000\000}\000\000\000\000\000\000\000|\000\000\000\000\000\000\000Z\000\000\000\000\000\000\000[\000\000\000\000\000\000\000\224\000\000\000\000\000\000\000N\000\000\000\000\000\000\000`\000\000\000\000\000\000\000h\000\000\000\000\000\000\000~\000\000\000\000\000\000\000\226\000\000\000\000\000\000\000u\000\000\000\000\000\000\000W\000\000\000\000\000\000\000q\000\000\000\000\000\000\000\214\000\000\000\000\000\000\000{\000\000\000\000\000\000\000I\000\000\000\000\000\000\000I\000\000\000\000\000\000\000\227\000\000\000\000\000\000\000?\000\000\000\000\000\000\000V\000\000\000\000\000\000\000k\000\000\000\000\000\000\000X\000\000\000\000\000\000\000\207\000\000\000\000\000\000\000\\\000\000\000\000\000\000\000Z\000\000\000\000\000\000\000l\000\000\000\000\000\000\000~\000\000\000\000\000\000\000j\000\000\000\000\000\000\000_\000\000\000\000\000\000\000j\000\000\000\000\000\000\000H\000\000\000\000\000\000\000Q\000\000\000\000\000\000\000r\000\000\000\000\000\000\000_\000\000\000\000\000\000\000^\000\000\000\000\000\000\000\225\000\000\000\000\000\000\000Z\000\000\000\000\000\000\000U\000\000\000\000\000\000\000j\000\000\000\000\000\000\000N\000\000\000\000\000\000\000B\000\000\000\000\000\000\000\243\000\000\000\000\000\000\000\225\000\000\000\000\000\000\000K\000\000\000\000\000\000\000e\000\000\000\000\000\000\000~\000\000\000\000\000\000\000S\000\000\000\000\000\000\000G\000\000\000\000\000\000\000Y\000\000\000\000\000\000\000\206\000\000\000\000\000\000\000w\000\000\000\000\000\000\000j\000\000\000\000\000\000\000\213\000\000\000\000\000\000\000O\000\000\000\000\000\000\000r\000\000\000\000\000\000\000\203\000\000\000\000\000\000\000l\000\000\000\000\000\000\000g\000\000\000\000\000\000\000?\000\000\000\000\000\000\000\202\000\000\000\000\000\000\000\256\000\000\000\000\000\000\000X\000\000\000\000\000\000\000U\000\000\000\000\000\000\000\\\000\000\000\000\000\000\000A\000\000\000\000\000\000\000\353\000\000\000\000\000\000\000\207\000\000\000\000\000\000\000c\000\000\000\000\000\000\000>\000\000\000\000\000\000\000\256\000\000\000\000\000\000\000e\000\000\000\000\000\000\0008\000\000\000\000\000\000\0004\000\000\000\000\000\000\000{\000\000\000\000\000\000\000i\000\000\000\000\000\000\000a\000\000\000\000\000\000\000\202\000\000\000\000\000\000\000l\000\000\000\000\000\000\000U\000\000\000\000\000\000\0002\000\000\000\000\000\000\000e\000\000\000\000\000\000\000z\000\000\000\000\000\000\000[\000\000\000\000\000\000\000y\000\000\000\000\000\000\000c\000\000\000\000\000\000\000c\000\000\000\000\000\000\000\201\000\000\000\000\000\000\000g\000\000\000\000\000\000\000\210\000\000\000\000\000\000\000E\000\000\000\000\000\000\000E\000\000\000\000\000\000\000]\000\000\000\000\000\000\000\\\000\000\000\000\000\000\000r\000\000\000\000\000\000\000i\000\000\000\000\000\000\000G\000\000\000\000\000\000\000v\000\000\000\000\000\000\000_\000\000\000\000\000\000\000\206\000\000\000\000\000\000\000Y\000\000\000\000\000\000\000\202\000\000\000\000\000\000\000K\000\000\000\000\000\000\000}\000\000\000\000\000\000\000`\000\000\000\000\000\000\000n\000\000\000\000\000\000\000N\000\000\000\000\000\000\000\203\000\000\000\000\000\000\000\227\000\000\000\000\000\000\000d\000\000\000\000\000\000\000g\000\000\000\000\000\000\000M\000\000\000\000\000\000\000w\000\000\000\000\000\000\000\273\000\000\000\000\000\000\000M\000\000\000\000\000\000\000i\000\000\000\000\000\000\000O\000\000\000\000\000\000\000\206\000\000\000\000\000\000\000\177\000\000\000\000\000\000\000s\000\000\000\000\000\000\0004\000\000\000\000\000\000\000\210\000\000\000\000\000\000\000K\000\000\000\000\000\000\0007\000\000\000\000\000\000\000\200\000\000\000\000\000\000\000V\000\000\000\000\000\000\000~\000\000\000\000\000\000\000\222\000\000\000\000\000\000\000\213\000\000\000\000\000\000\000\200\000\000\000\000\000\000\000O\000\000\000\000\000\000\000\200\000\000\000\000\000\000\000r\000\000\000\000\000\000\000k\000\000\000\000\000\000\000\212\000\000\000\000\000\000\000j\000\000\000\000\000\000\000\216\000\000\000\000\000\000\000X\000\000\000\000\000\000\000H\000\000\000\000\000\000\000Y\000\000\000\000\000\000\000\225\000\000\000\000\000\000\000G\000\000\000\000\000\000\000~\000\000\000\000\000\000\000p\000\000\000\000\000\000\000z\000\000\000\000\000\000\000\236\000\000\000\000\000\000\000a\000\000\000\000\000\000\000:\000\000\000\000\000\000\000x\000\000\000\000\000\000\000U\000\000\000\000\000\000\000i\000\000\000\000\000\000\000s\000\000\000\000\000\000\000F\000\000\000\000\000\000\000a\000\000\000\000\000\000\000\226\000\000\000\000\000\000\000\254\000\000\000\000\000\000\000\261\000\000\000\000\000\000\000i\000\000\000\000\000\000\000y\000\000\000\000\000\000\000U\000\000\000\000\000\000\000y\000\000\000\000\000\000\000\232\000\000\000\000\000\000\000z\000\000\000\000\000\000\000t\000\000\000\000\000\000\000K\000\000\000\000\000\000\000\200\000\000\000\000\000\000\000{\000\000\000\000\000\000\000h\000\000\000\000\000\000\000g\000\000\000\000\000\000\000\204\000\000\000\000\000\000\000?\000\000\000\000\000\000\000C\000\000\000\000\000\000\000Y\000\000\000\000\000\000\000M\000\000\000\000\000\000\000_\000\000\000\000\000\000\000w\000\000\000\000\000\000\000X\000\000\000\000\000\000\000W\000\000\000\000\000\000\000e\000\000\000\000\000\000\000^\000\000\000\000\000\000\000z\000\000\000\000\000\000\000z\000\000\000\000\000\000\000K\000\000\000\000\000\000\000Z\000\000\000\000\000\000\000i\000\000\000\000\000\000\000T\000\000\000\000\000\000\000\250\000\000\000\000\000\000\000f\000\000\000\000\000\000\000y\000\000\000\000\000\000\000m\000\000\000\000\000\000\000/\000\000\000\000\000\000\000Q\000\000\000\000\000\000\000]\000\000\000\000\000\000\000n\000\000\000\000\000\000\000r\000\000\000\000\000\000\000\207\000\000\000\000\000\000\000n\000\000\000\000\000\000\000s\000\000\000\000\000\000\000\217\000\000\000\000\000\000\000J\000\000\000\000\000\000\000F\000\000\000\000\000\000\000l\000\000\000\000\000\000\000k\000\000\000\000\000\000\000A\000\000\000\000\000\000\000S\000\000\000\000\000\000\000q\000\000\000\000\000\000\000j\000\000\000\000\000\000\000K\000\000\000\000\000\000\000E\000\000\000\000\000\000\000b\000\000\000\000\000\000\000M\000\000\000\000\000\000\000-\000\000\000\000\000\000\000\210\000\000\000\000\000\000\000\256\000\000\000\000\000\000\000`\000\000\000\000\000\000\000d\000\000\000\000\000\000\000~\000\000\000\000\000\000\000\223\000\000\000\000\000\000\000\210\000\000\000\000\000\000\000>\000\000\000\000\000\000\000B\000\000\000\000\000\000\000g\000\000\000\000\000\000\000M\000\000\000\000\000\000\000\260\000\000\000\000\000\000\000R\000\000\000\000\000\000\000b\000\000\000\000\000\000\000B\000\000\000\000\000\000\000\242\000\000\000\000\000\000\0005\000\000\000\000\000\000\000R\000\000\000\000\000\000\000{\000\000\000\000\000\000\000\231\000\000\000\000\000\000\000K\000\000\000\000\000\000\000\\\000\000\000\000\000\000\000o\000\000\000\000\000\000\000n\000\000\000\000\000\000\000c\000\000\000\000\000\000\000\206\000\000\000\000\000\000\000j\000\000\000\000\000\000\000\252\000\000\000\000\000\000\000{\000\000\000\000\000\000\0003\000\000\000\000\000\000\000B\000\000\000\000\000\000\000v\000\000\000\000\000\000\000e\000\000\000\000\000\000\000e\000\000\000\000\000\000\000c\000\000\000\000\000\000\000\200\000\000\000\000\000\000\000o\000\000\000\000\000\000\000T\000\000\000\000\000\000\0009\000\000\000\000\000\000\000i\000\000\000\000\000\000\000[\000\000\000\000\000\000\000y\000\000\000\000\000\000\0005\000\000\000\000\000\000\0009\000\000\000\000\000\000\000=\000\000\000\000\000\000\000=\000\000\000\000\000\000\000\211\000\000\000\000\000\000\0005\000\000\000\000\000\000\000H\000\000\000\000\000\000\000\230\000\000\000\000\000\000\000\177\000\000\000\000\000\000\000B\000\000\000\000\000\000\000k\000\000\000\000\000\000\000\236\000\000\000\000\000\000\000T\000\000\000\000\000\000\000_\000\000\000\000\000\000\000\200\000\000\000\000\000\000\000G\000\000\000\000\000\000\000Z\000\000\000\000\000\000\000s\000\000\000\000\000\000\000c\000\000\000\000\000\000\000t\000\000\000\000\000\000\000h\000\000\000\000\000\000\000<\000\000\000\000\000\000\000h\000\000\000\000\000\000\0001\000\000\000\000\000\000\0007\000\000\000\000\000\000\000{\000\000\000\000\000\000\000U\000\000\000\000\